{
  "version": "1.0",
  "truncation": null,
  "padding": null,
  "added_tokens": [
    {
      "id": 0,
      "content": "<unk>",
      "single_word": false,
      "lstrip": false,
      "rstrip": false,
      "normalized": false,
      "special": true
    },
    {
      "id": 1,
      "content": "<s>",
      "single_word": false,
      "lstrip": false,
      "rstrip": false,
      "normalized": false,
      "special": true
    },
    {
      "id": 2,
      "content": "</s>",
      "single_word": false,
      "lstrip": false,
      "rstrip": false,
      "normalized": false,
      "special": true
    },
    {
      "id": 3,
      "content": "<|im_start|>",
      "single_word": false,
      "lstrip": false,
      "rstrip": false,
      "normalized": false,
      "special": true
    },
    {
      "id": 4,
      "content": "<|im_end|>",
      "single_word": false,
      "lstrip": false,
      "rstrip": false,
      "normalized": false,
      "special": true
    }
  ],
  "normalizer": {
    "type": "NFKC"
  },
  "pre_tokenizer": {
    "type": "ByteLevel",
    "add_prefix_space": false,
    "trim_offsets": true,
    "use_regex": true
  },
  "post_processor": null,
  "decoder": {
    "type": "ByteLevel",
    "add_prefix_space": true,
    "trim_offsets": true,
    "use_regex": true
  },
  "model": {
    "type": "BPE",
    "dropout": null,
    "unk_token": "<unk>",
    "continuing_subword_prefix": null,
    "end_of_word_suffix": null,
    "fuse_unk": false,
    "byte_fallback": false,
    "ignore_merges": false,
    "vocab": {
      "<unk>": 0,
      "<s>": 1,
      "</s>": 2,
      "<|im_start|>": 3,
      "<|im_end|>": 4,
      "!": 5,
      "\"": 6,
      "#": 7,
      "$": 8,
      "%": 9,
      "&": 10,
      "'": 11,
      "(": 12,
      ")": 13,
      "*": 14,
      "+": 15,
      ",": 16,
      "-": 17,
      ".": 18,
      "/": 19,
      "0": 20,
      "1": 21,
      "2": 22,
      "3": 23,
      "4": 24,
      "5": 25,
      "6": 26,
      "7": 27,
      "8": 28,
      "9": 29,
      ":": 30,
      ";": 31,
      "<": 32,
      "=": 33,
      ">": 34,
      "?": 35,
      "@": 36,
      "A": 37,
      "B": 38,
      "C": 39,
      "D": 40,
      "E": 41,
      "F": 42,
      "G": 43,
      "H": 44,
      "I": 45,
      "J": 46,
      "K": 47,
      "L": 48,
      "M": 49,
      "N": 50,
      "O": 51,
      "P": 52,
      "Q": 53,
      "R": 54,
      "S": 55,
      "T": 56,
      "U": 57,
      "V": 58,
      "W": 59,
      "X": 60,
      "Y": 61,
      "Z": 62,
      "[": 63,
      "\\": 64,
      "]": 65,
      "^": 66,
      "_": 67,
      "`": 68,
      "a": 69,
      "b": 70,
      "c": 71,
      "d": 72,
      "e": 73,
      "f": 74,
      "g": 75,
      "h": 76,
      "i": 77,
      "j": 78,
      "k": 79,
      "l": 80,
      "m": 81,
      "n": 82,
      "o": 83,
      "p": 84,
      "q": 85,
      "r": 86,
      "s": 87,
      "t": 88,
      "u": 89,
      "v": 90,
      "w": 91,
      "x": 92,
      "y": 93,
      "z": 94,
      "{": 95,
      "|": 96,
      "}": 97,
      "~": 98,
      "¡": 99,
      "¢": 100,
      "£": 101,
      "¤": 102,
      "¥": 103,
      "¦": 104,
      "§": 105,
      "¨": 106,
      "©": 107,
      "ª": 108,
      "«": 109,
      "¬": 110,
      "®": 111,
      "¯": 112,
      "°": 113,
      "±": 114,
      "²": 115,
      "³": 116,
      "´": 117,
      "µ": 118,
      "¶": 119,
      "·": 120,
      "¸": 121,
      "¹": 122,
      "º": 123,
      "»": 124,
      "¼": 125,
      "½": 126,
      "¾": 127,
      "¿": 128,
      "À": 129,
      "Á": 130,
      "Â": 131,
      "Ã": 132,
      "Ä": 133,
      "Å": 134,
      "Æ": 135,
      "Ç": 136,
      "È": 137,
      "É": 138,
      "Ê": 139,
      "Ë": 140,
      "Ì": 141,
      "Í": 142,
      "Î": 143,
      "Ï": 144,
      "Ð": 145,
      "Ñ": 146,
      "Ò": 147,
      "Ó": 148,
      "Ô": 149,
      "Õ": 150,
      "Ö": 151,
      "×": 152,
      "Ø": 153,
      "Ù": 154,
      "Ú": 155,
      "Û": 156,
      "Ü": 157,
      "Ý": 158,
      "Þ": 159,
      "ß": 160,
      "à": 161,
      "á": 162,
      "â": 163,
      "ã": 164,
      "ä": 165,
      "å": 166,
      "æ": 167,
      "ç": 168,
      "è": 169,
      "é": 170,
      "ê": 171,
      "ë": 172,
      "ì": 173,
      "í": 174,
      "î": 175,
      "ï": 176,
      "ð": 177,
      "ñ": 178,
      "ò": 179,
      "ó": 180,
      "ô": 181,
      "õ": 182,
      "ö": 183,
      "÷": 184,
      "ø": 185,
      "ù": 186,
      "ú": 187,
      "û": 188,
      "ü": 189,
      "ý": 190,
      "þ": 191,
      "ÿ": 192,
      "Ā": 193,
      "ā": 194,
      "Ă": 195,
      "ă": 196,
      "Ą": 197,
      "ą": 198,
      "Ć": 199,
      "ć": 200,
      "Ĉ": 201,
      "ĉ": 202,
      "Ċ": 203,
      "ċ": 204,
      "Č": 205,
      "č": 206,
      "Ď": 207,
      "ď": 208,
      "Đ": 209,
      "đ": 210,
      "Ē": 211,
      "ē": 212,
      "Ĕ": 213,
      "ĕ": 214,
      "Ė": 215,
      "ė": 216,
      "Ę": 217,
      "ę": 218,
      "Ě": 219,
      "ě": 220,
      "Ĝ": 221,
      "ĝ": 222,
      "Ğ": 223,
      "ğ": 224,
      "Ġ": 225,
      "ġ": 226,
      "Ģ": 227,
      "ģ": 228,
      "Ĥ": 229,
      "ĥ": 230,
      "Ħ": 231,
      "ħ": 232,
      "Ĩ": 233,
      "ĩ": 234,
      "Ī": 235,
      "ī": 236,
      "Ĭ": 237,
      "ĭ": 238,
      "Į": 239,
      "į": 240,
      "İ": 241,
      "ı": 242,
      "Ĳ": 243,
      "ĳ": 244,
      "Ĵ": 245,
      "ĵ": 246,
      "Ķ": 247,
      "ķ": 248,
      "ĸ": 249,
      "Ĺ": 250,
      "ĺ": 251,
      "Ļ": 252,
      "ļ": 253,
      "Ľ": 254,
      "ľ": 255,
      "Ŀ": 256,
      "ŀ": 257,
      "Ł": 258,
      "ł": 259,
      "Ń": 260,
      "ä¸": 261,
      "ãĢ": 262,
      "çļ": 263,
      "çļĦ": 264,
      "äº": 265,
      "ãĢĤ": 266,
      "æľ": 267,
      "åı": 268,
      "åħ": 269,
      "ä»": 270,
      "ãĢģ": 271,
      "å¤": 272,
      "å®": 273,
      "åĪ": 274,
      "ä½": 275,
      "è¿": 276,
      "çĶ": 277,
      "åľ": 278,
      "åĲ": 279,
      "åĬ": 280,
      "æĺ": 281,
      "ç»": 282,
      "åĽ": 283,
      "æĪ": 284,
      "æĸ": 285,
      "ä¹": 286,
      "ä¼": 287,
      "ä¸Ģ": 288,
      "å¹": 289,
      "å°": 290,
      "åŃ": 291,
      "æĺ¯": 292,
      "è®": 293,
      "æĹ": 294,
      "âĢ": 295,
      "åį": 296,
      "è¯": 297,
      "å·": 298,
      "æľī": 299,
      "åľ¨": 300,
      "éĩ": 301,
      "æĿ": 302,
      "äºº": 303,
      "åĮ": 304,
      "ä¸į": 305,
      "å¸": 306,
      "åº": 307,
      "ä¸Ń": 308,
      "å¼": 309,
      "æī": 310,
      "éĢ": 311,
      "åĴ": 312,
      "è¡": 313,
      "å¾": 314,
      "åĨ": 315,
      "èĢ": 316,
      "å¯": 317,
      "åĴĮ": 318,
      "åĩ": 319,
      "äºĨ": 320,
      "æķ": 321,
      "å±": 322,
      "ĥ½": 323,
      "æĢ": 324,
      "å¤§": 325,
      "çĽ": 326,
      "æĬ": 327,
      "è´": 328,
      "æ°": 329,
      "ä¸º": 330,
      "ç§": 331,
      "æł": 332,
      "åĽ½": 333,
      "è§": 334,
      "çĶŁ": 335,
      "çİ": 336,
      "ä¸ļ": 337,
      "èµ": 338,
      "è¦": 339,
      "çī": 340,
      "ä»¥": 341,
      "å¥": 342,
      "æĶ": 343,
      "éĻ": 344,
      "å¿": 345,
      "è¦ģ": 346,
      "åŃ¦": 347,
      "éĿ": 348,
      "åıĳ": 349,
      "èĩ": 350,
      "å¹´": 351,
      "ä¼ļ": 352,
      "æŃ": 353,
      "åİ": 354,
      "çĶ¨": 355,
      "æ³": 356,
      "çŃ": 357,
      "å½": 358,
      "çĲ": 359,
      "ä¿": 360,
      "èĥ½": 361,
      "æ²": 362,
      "å·¥": 363,
      "éĹ": 364,
      "çº": 365,
      "ä¸Ĭ": 366,
      "ä½ľ": 367,
      "åĳ": 368,
      "æİ": 369,
      "æŀ": 370,
      "æµ": 371,
      "æĹ¶": 372,
      "ä¸ª": 373,
      "âĢľ": 374,
      "âĢĿ": 375,
      "æĪĲ": 376,
      "è¡Į": 377,
      "åĵ": 378,
      "è¿Ļ": 379,
      "åı¯": 380,
      "é¢": 381,
      "æĪĳ": 382,
      "åĪ°": 383,
      "å¯¹": 384,
      "æ¯": 385,
      "æĮ": 386,
      "åĩº": 387,
      "åŁ": 388,
      "è¾": 389,
      "æĥ": 390,
      "é«": 391,
      "éĺ": 392,
      "äºİ": 393,
      "å®¶": 394,
      "çĲĨ": 395,
      "çľ": 396,
      "èĤ": 397,
      "åī": 398,
      "é«ĺ": 399,
      "æ±": 400,
      "äº§": 401,
      "æĿ¥": 402,
      "åľ°": 403,
      "å¤ļ": 404,
      "åĮĸ": 405,
      "çŃī": 406,
      "æĦ": 407,
      "æĭ": 408,
      "æĸ¹": 409,
      "åĪĨ": 410,
      "è½": 411,
      "åĬĽ": 412,
      "åħ¨": 413,
      "è¿Ľ": 414,
      "éģ": 415,
      "èĩª": 416,
      "æĸ°": 417,
      "ä½ĵ": 418,
      "ç®": 419,
      "æĢ§": 420,
      "ä¾": 421,
      "å»": 422,
      "åĬ¨": 423,
      "æ´": 424,
      "ç«": 425,
      "å®ŀ": 426,
      "åħ¬": 427,
      "ç»ı": 428,
      "ä¹Ł": 429,
      "æ¸": 430,
      "è¿ĩ": 431,
      "éĥ": 432,
      "çİ°": 433,
      "ä»¬": 434,
      "å¦": 435,
      "ç¨": 436,
      "å°±": 437,
      "å±ķ": 438,
      "åĲĪ": 439,
      "åĲİ": 440,
      "éķ": 441,
      "ä¸»": 442,
      "çĻ": 443,
      "åģ": 444,
      "ä¸ĭ": 445,
      "çĤ": 446,
      "æı": 447,
      "éĿ¢": 448,
      "éĩį": 449,
      "æ¬": 450,
      "é£": 451,
      "æĽ": 452,
      "ä»ĸ": 453,
      "ç½": 454,
      "åĵģ": 455,
      "å®ļ": 456,
      "æľº": 457,
      "å»º": 458,
      "éĥ¨": 459,
      "åĲĮ": 460,
      "å¥½": 461,
      "èī": 462,
      "ä¸İ": 463,
      "åĬł": 464,
      "å¿ĥ": 465,
      "é¡": 466,
      "æ³ķ": 467,
      "å¸Ĥ": 468,
      "ä¹ĭ": 469,
      "è®¾": 470,
      "åº¦": 471,
      "èģ": 472,
      "æ°´": 473,
      "èĢĮ": 474,
      "ç¤": 475,
      "å¼Ģ": 476,
      "çĹ": 477,
      "éĽ": 478,
      "åŃĲ": 479,
      "åħ¶": 480,
      "æĻ": 481,
      "å¢": 482,
      "åĪ¶": 483,
      "æľ¬": 484,
      "èĢħ": 485,
      "å¾Ĺ": 486,
      "åĢ": 487,
      "éĩı": 488,
      "20": 489,
      "è¶": 490,
      "çĸ": 491,
      "éķ¿": 492,
      "ç¬": 493,
      "è·": 494,
      "æıĲ": 495,
      "çŁ": 496,
      "çī©": 497,
      "å¦Ĥ": 498,
      "è°": 499,
      "åĬ¡": 500,
      "åħ³": 501,
      "åĿ": 502,
      "æīĢ": 503,
      "ç¾": 504,
      "åıĬ": 505,
      "ä¿Ŀ": 506,
      "ç®¡": 507,
      "æĹ¥": 508,
      "äºĭ": 509,
      "åīį": 510,
      "åºĶ": 511,
      "æ¶": 512,
      "éļ": 513,
      "æį": 514,
      "éĢļ": 515,
      "çĶµ": 516,
      "çĿ": 517,
      "åĨħ": 518,
      "éĥ½": 519,
      "ç³": 520,
      "æķĻ": 521,
      "å§": 522,
      "åľº": 523,
      "çł": 524,
      "ç§į": 525,
      "èĬ": 526,
      "ç©": 527,
      "çķ": 528,
      "æľĪ": 529,
      "ç²": 530,
      "å°ı": 531,
      "æĥħ": 532,
      "åĽł": 533,
      "æĸĩ": 534,
      "çĦ": 535,
      "ç´": 536,
      "æŁ": 537,
      "èµĦ": 538,
      "åĮº": 539,
      "å¤ĸ": 540,
      "ç¨ĭ": 541,
      "èĲ": 542,
      "å¹³": 543,
      "æĬĢ": 544,
      "æľĢ": 545,
      "æ°ĳ": 546,
      "ç§ĳ": 547,
      "éħ": 548,
      "éľ": 549,
      "æĽ´": 550,
      "åıĳå±ķ": 551,
      "çĥ": 552,
      "åĳĺ": 553,
      "éĹ´": 554,
      "å·¥ä½ľ": 555,
      "ä½į": 556,
      "çĽ®": 557,
      "å¤©": 558,
      "çĽ¸": 559,
      "æľ¯": 560,
      "è´¨": 561,
      "æĦı": 562,
      "å°Ĩ": 563,
      "ä¸ŃåĽ½": 564,
      "æľŁ": 565,
      "åħ¥": 566,
      "å¸¸": 567,
      "æ¯Ķ": 568,
      "ç¡": 569,
      "å®ī": 570,
      "ç¬¬": 571,
      "çĤ¹": 572,
      "ç³»": 573,
      "ä½¿": 574,
      "Ĥ£": 575,
      "ä»£": 576,
      "è¡¨": 577,
      "å¼º": 578,
      "æĶ¿": 579,
      "è¯´": 580,
      "ç±": 581,
      "å¾Ī": 582,
      "èĥ": 583,
      "ä¸ī": 584,
      "éĶ": 585,
      "åı¸": 586,
      "æ·": 587,
      "å½ĵ": 588,
      "ä¼ģ": 589,
      "éģĵ": 590,
      "è¿ĺ": 591,
      "æ´»": 592,
      "æŀľ": 593,
      "çī¹": 594,
      "éĩĳ": 595,
      "ä»İ": 596,
      "å¹¶": 597,
      "æ²»": 598,
      "èµ·": 599,
      "åı¯ä»¥": 600,
      "èį": 601,
      "æģ": 602,
      "æĺİ": 603,
      "æ¬¡": 604,
      "èĪ": 605,
      "åĪ©": 606,
      "ç¥": 607,
      "æŃ¤": 608,
      "çĦ¶": 609,
      "çĿĢ": 610,
      "åŁº": 611,
      "ä¿¡": 612,
      "ãĢĭ": 613,
      "ä½Ĩ": 614,
      "ãĢĬ": 615,
      "ä¸ĵ": 616,
      "åĲĦ": 617,
      "ä¼ģä¸ļ": 618,
      "æĪĳä»¬": 619,
      "æĪĸ": 620,
      "åħ¬åı¸": 621,
      "åĲį": 622,
      "éĴ": 623,
      "æķ°": 624,
      "éĵ": 625,
      "è®¡": 626,
      "éĻ¢": 627,
      "æľį": 628,
      "æĮģ": 629,
      "é£İ": 630,
      "ç¾İ": 631,
      "çĹħ": 632,
      "æĹł": 633,
      "äºĽ": 634,
      "ä¸Ģä¸ª": 635,
      "è§Ħ": 636,
      "å¼ı": 637,
      "èĭ": 638,
      "æŃ£": 639,
      "åħļ": 640,
      "çģ": 641,
      "è§£": 642,
      "èĤ²": 643,
      "ä½ł": 644,
      "ç»ĵ": 645,
      "é¦": 646,
      "è¢": 647,
      "ç¼": 648,
      "éĢł": 649,
      "åķ": 650,
      "èº": 651,
      "å¯¼": 652,
      "è£": 653,
      "éľĢ": 654,
      "æº": 655,
      "æ¡": 656,
      "å£": 657,
      "äºĮ": 658,
      "èī²": 659,
      "ä»»": 660,
      "åĸ": 661,
      "ç»Ł": 662,
      "åŀ": 663,
      "ç¤¾": 664,
      "é¢ĺ": 665,
      "åģļ": 666,
      "æ±Ĥ": 667,
      "åįģ": 668,
      "åħ·": 669,
      "èĦ": 670,
      "çĪ": 671,
      "æ°Ķ": 672,
      "åĮ»": 673,
      "çłĶ": 674,
      "åĪĽ": 675,
      "èº«": 676,
      "00": 677,
      "çľĭ": 678,
      "éĩĮ": 679,
      "ç«ĭ": 680,
      "åħĥ": 681,
      "å¢ŀ": 682,
      "é¡¹": 683,
      "ç¦": 684,
      "å¤Ħ": 685,
      "æµģ": 686,
      "æį®": 687,
      "æĦŁ": 688,
      "æķĪ": 689,
      "æłĩ": 690,
      "è¿Ĳ": 691,
      "ç½ĳ": 692,
      "çĶ±": 693,
      "æĥ³": 694,
      "æİ¥": 695,
      "è½¦": 696,
      "ç²¾": 697,
      "æł¡": 698,
      "éĹ®": 699,
      "ç»Ħ": 700,
      "æīĭ": 701,
      "èĮ": 702,
      "ä¹Ī": 703,
      "æł·": 704,
      "åİ»": 705,
      "è¢«": 706,
      "ä»¶": 707,
      "éĹ¨": 708,
      "åĲĳ": 709,
      "å·±": 710,
      "éª": 711,
      "ä¼ł": 712,
      "æĬĢæľ¯": 713,
      "åİŁ": 714,
      "çĻ½": 715,
      "æĸĻ": 716,
      "æ»": 717,
      "æĢ»": 718,
      "å·²": 719,
      "åıĹ": 720,
      "é¢Ĩ": 721,
      "è¥": 722,
      "æ²¡": 723,
      "çĲĥ": 724,
      "äº¤": 725,
      "è·¯": 726,
      "å¤ĩ": 727,
      "åķĨ": 728,
      "èĩªå·±": 729,
      "çº§": 730,
      "è¥¿": 731,
      "åħ±": 732,
      "å½¢": 733,
      "å½±": 734,
      "æµ·": 735,
      "æł¼": 736,
      "çİ¯": 737,
      "çŁ¥": 738,
      "åŀĭ": 739,
      "é»": 740,
      "æľįåĬ¡": 741,
      "ä¸¤": 742,
      "çľģ": 743,
      "ç®¡çĲĨ": 744,
      "åĻ": 745,
      "æ£": 746,
      "åıĺ": 747,
      "è¿Ľè¡Į": 748,
      "å°ĳ": 749,
      "åįķ": 750,
      "éĺ²": 751,
      "é©": 752,
      "ç±»": 753,
      "åĽ½å®¶": 754,
      "è°ĥ": 755,
      "åħĪ": 756,
      "ä¼ĺ": 757,
      "æİ¨": 758,
      "æĶ¹": 759,
      "èģĶ": 760,
      "èİ": 761,
      "ä¸ĩ": 762,
      "éĽĨ": 763,
      "ä¹ł": 764,
      "éĺŁ": 765,
      "èĩ³": 766,
      "æ¢": 767,
      "æĶ¶": 768,
      "ä¸ĸ": 769,
      "ç¤º": 770,
      "å¹¿": 771,
      "æ·±": 772,
      "éĤ£": 773,
      "èĻ": 774,
      "æŀĦ": 775,
      "å¸Ī": 776,
      "é£Ł": 777,
      "äº§åĵģ": 778,
      "è¾ĥ": 779,
      "æĬ¥": 780,
      "å±±": 781,
      "çĸĹ": 782,
      "åıª": 783,
      "åįĹ": 784,
      "æ®": 785,
      "åĻ¨": 786,
      "æºĲ": 787,
      "æĮĩ": 788,
      "åıĸ": 789,
      "ä¹¦": 790,
      "æĸ½": 791,
      "å®Į": 792,
      "ä¾Ľ": 793,
      "æīį": 794,
      "è®¤": 795,
      "ä¸ľ": 796,
      "æĶ¾": 797,
      "åŁİ": 798,
      "å»ºè®¾": 799,
      "èĬĤ": 800,
      "ç¤¾ä¼ļ": 801,
      "åı£": 802,
      "çº¿": 803,
      "èµĽ": 804,
      "æ³¨": 805,
      "è¾¾": 806,
      "éĢī": 807,
      "çĥŃ": 808,
      "èĲ¥": 809,
      "æ¨": 810,
      "è®°": 811,
      "åĮĹ": 812,
      "èĢĥ": 813,
      "ä»·": 814,
      "åĽĽ": 815,
      "èĢģ": 816,
      "è®©": 817,
      "æ¼": 818,
      "å¸¦": 819,
      "æĪĺ": 820,
      "è¿ĳ": 821,
      "éĿŀ": 822,
      "ç¡®": 823,
      "æĿ¡": 824,
      "å®¹": 825,
      "ç¥ŀ": 826,
      "çķĮ": 827,
      "åĩĨ": 828,
      "éĹ®é¢ĺ": 829,
      "çĬ": 830,
      "æķĻèĤ²": 831,
      "è£ħ": 832,
      "åĪ«": 833,
      "èħ": 834,
      "æĬ¤": 835,
      "è¯ģ": 836,
      "å§Ķ": 837,
      "åı°": 838,
      "åĨ³": 839,
      "åħī": 840,
      "æ¯ı": 841,
      "ç´ł": 842,
      "åĬŁ": 843,
      "å²": 844,
      "çĽ´": 845,
      "çħ": 846,
      "äºĶ": 847,
      "åĽ¢": 848,
      "æĺĵ": 849,
      "å¢ĥ": 850,
      "æµİ": 851,
      "å¥³": 852,
      "æĢĿ": 853,
      "è±": 854,
      "æķ´": 855,
      "æ²¡æľī": 856,
      "æīĵ": 857,
      "ä½İ": 858,
      "æŃ¥": 859,
      "åĶ": 860,
      "å±Ģ": 861,
      "æ¸ħ": 862,
      "201": 863,
      "ä¹ī": 864,
      "æĬĬ": 865,
      "æĶ¯": 866,
      "çľŁ": 867,
      "ç©¶": 868,
      "ç©º": 869,
      "åĽŀ": 870,
      "è§Ĥ": 871,
      "ç»Ļ": 872,
      "åĮħ": 873,
      "è§Ĩ": 874,
      "åħ»": 875,
      "èģĮ": 876,
      "åĬŀ": 877,
      "å®ĥ": 878,
      "è´¹": 879,
      "æĪ·": 880,
      "ä½¿çĶ¨": 881,
      "æĬķ": 882,
      "æĿĲ": 883,
      "éĻħ": 884,
      "æ¶Ī": 885,
      "éľĢè¦ģ": 886,
      "çĶŁäº§": 887,
      "åĭ": 888,
      "å¼ķ": 889,
      "Ġ,": 890,
      "å¤´": 891,
      "æģ¯": 892,
      "é¥": 893,
      "ç»ıæµİ": 894,
      "è¨": 895,
      "å¸Ĥåľº": 896,
      "çİĩ": 897,
      "åĬ©": 898,
      "èį¯": 899,
      "è¯¥": 900,
      "æł¹": 901,
      "å¤į": 902,
      "ç»´": 903,
      "æŁ¥": 904,
      "ç§¯": 905,
      "åıĤ": 906,
      "å¿«": 907,
      "éĢļè¿ĩ": 908,
      "è¯Ĩ": 909,
      "éĢŁ": 910,
      "è®®": 911,
      "å°±æĺ¯": 912,
      "ä»Ĭ": 913,
      "éĩįè¦ģ": 914,
      "è´£": 915,
      "å¸ĥ": 916,
      "æĢģ": 917,
      "èĩ´": 918,
      "è§ģ": 919,
      "æĤ£": 920,
      "å®¢": 921,
      "å¿ħ": 922,
      "çı": 923,
      "è®º": 924,
      "åįĩ": 925,
      "å¹²": 926,
      "æĤ": 927,
      "çłĶç©¶": 928,
      "è½¬": 929,
      "åĨį": 930,
      "ä¸ĵä¸ļ": 931,
      "åĿļ": 932,
      "å®īåħ¨": 933,
      "æĸ¯": 934,
      "éªĮ": 935,
      "åĨµ": 936,
      "èı": 937,
      "çĶŁæ´»": 938,
      "æŀģ": 939,
      "æĸŃ": 940,
      "åįİ": 941,
      "éŁ": 942,
      "æİ§": 943,
      "åĦ": 944,
      "åıį": 945,
      "åĳ½": 946,
      "è¶Ĭ": 947,
      "åİĨ": 948,
      "ç»Ń": 949,
      "æħ": 950,
      "èĬ±": 951,
      "å¦Ĥæŀľ": 952,
      "å¾·": 953,
      "è¶³": 954,
      "ä¸»è¦ģ": 955,
      "éĻĲ": 956,
      "10": 957,
      "åĵį": 958,
      "æ¹": 959,
      "å¡": 960,
      "åģ¥": 961,
      "æĹ¶éĹ´": 962,
      "è¯Ŀ": 963,
      "æ¸©": 964,
      "ä½ķ": 965,
      "æĿĥ": 966,
      "æ£Ģ": 967,
      "å·ŀ": 968,
      "èĳ": 969,
      "çĪ±": 970,
      "è¯ķ": 971,
      "ä¸Ķ": 972,
      "éĢĤ": 973,
      "åİĭ": 974,
      "èĮĥ": 975,
      "æ¸¸": 976,
      "çĭ": 977,
      "èİ·": 978,
      "ç¢": 979,
      "ä»ĸä»¬": 980,
      "åĢ¼": 981,
      "çļĦäºº": 982,
      "æ¨¡": 983,
      "åĪĻ": 984,
      "çª": 985,
      "æİĴ": 986,
      "åĨĽ": 987,
      "åĨľ": 988,
      "æĸĩåĮĸ": 989,
      "åĳĬ": 990,
      "éļ¾": 991,
      "é¦ĸ": 992,
      "éĩĩ": 993,
      "æĸ¹éĿ¢": 994,
      "æ¡Ī": 995,
      "åŁŁ": 996,
      "è¶ħ": 997,
      "èŀ": 998,
      "åĬ¿": 999,
      "ç§°": 1000,
      "ä»Ģ": 1001,
      "é¡¹çĽ®": 1002,
      "åı²": 1003,
      "åº·": 1004,
      "æľª": 1005,
      "å·¥ç¨ĭ": 1006,
      "å§ĭ": 1007,
      "çĬ¶": 1008,
      "è¡Ģ": 1009,
      "åŃĹ": 1010,
      "åħĭ": 1011,
      "ä¸¥": 1012,
      "æ²¹": 1013,
      "âĢĿ,": 1014,
      "ç»ĩ": 1015,
      "æĺ¾": 1016,
      "åıĪ": 1017,
      "åĳ¨": 1018,
      "åŃĺ": 1019,
      "ç³»ç»Ł": 1020,
      "æ±Ł": 1021,
      "æ²»çĸĹ": 1022,
      "æµĭ": 1023,
      "åŃ¦çĶŁ": 1024,
      "éĻ¤": 1025,
      "éħį": 1026,
      "äººæ°ĳ": 1027,
      "è¦ģæ±Ĥ": 1028,
      "æıĲä¾Ľ": 1029,
      "åħ·æľī": 1030,
      "ä¼Ĺ": 1031,
      "ä¸ĸçķĮ": 1032,
      "ä¾¿": 1033,
      "âĢĶ": 1034,
      "èīº": 1035,
      "åı¯èĥ½": 1036,
      "åĦ¿": 1037,
      "åŁ¹": 1038,
      "å½±åĵį": 1039,
      "åĪĴ": 1040,
      "19": 1041,
      "æĥħåĨµ": 1042,
      "åįı": 1043,
      "æĪ¿": 1044,
      "é©¬": 1045,
      "çļ®": 1046,
      "è¿Ļä¸ª": 1047,
      "åĢĻ": 1048,
      "å¥¹": 1049,
      "è¡Įä¸ļ": 1050,
      "ç»Ĩ": 1051,
      "åŃ¦ä¹ł": 1052,
      "ä¹Ĳ": 1053,
      "çĽĳ": 1054,
      "çİ¯å¢ĥ": 1055,
      "å¥½çļĦ": 1056,
      "è´¨éĩı": 1057,
      "åĪĩ": 1058,
      "ä»Ģä¹Ī": 1059,
      "åľŁ": 1060,
      "ç«Ļ": 1061,
      "åĲĮæĹ¶": 1062,
      "èĲ½": 1063,
      "çĮ": 1064,
      "éĿĴ": 1065,
      "ç±³": 1066,
      "å±Ĥ": 1067,
      "ãĢĤâĢĿ": 1068,
      "çº¦": 1069,
      "çħ§": 1070,
      "äº¬": 1071,
      "çİĭ": 1072,
      "çģ«": 1073,
      "çīĩ": 1074,
      "èĥ½åĬĽ": 1075,
      "åĽłä¸º": 1076,
      "æľĽ": 1077,
      "è®¾è®¡": 1078,
      "é¾": 1079,
      "å¼ł": 1080,
      "æ´»åĬ¨": 1081,
      "äº§ä¸ļ": 1082,
      "å£«": 1083,
      "å°Ķ": 1084,
      "å±ŀ": 1085,
      "çŁ³": 1086,
      "é¢Ħ": 1087,
      "è®¾å¤ĩ": 1088,
      "å¤ª": 1089,
      "åį³": 1090,
      "æīĢä»¥": 1091,
      "éĶĢ": 1092,
      "éĻį": 1093,
      "æ¥": 1094,
      "æļ": 1095,
      "æĴ": 1096,
      "ä»¥åıĬ": 1097,
      "å¤±": 1098,
      "æ®µ": 1099,
      "åĸĦ": 1100,
      "æĳ": 1101,
      "æıĲé«ĺ": 1102,
      "çº¢": 1103,
      "åĪĽæĸ°": 1104,
      "è±¡": 1105,
      "èµ°": 1106,
      "èŀį": 1107,
      "åĩł": 1108,
      "æĺ¯ä¸Ģ": 1109,
      "ç»Ħç»ĩ": 1110,
      "æī¿": 1111,
      "ç¦»": 1112,
      "åħħ": 1113,
      "éļı": 1114,
      "åºľ": 1115,
      "æĤ£èĢħ": 1116,
      "æ»¡": 1117,
      "æ¼Ķ": 1118,
      "ä¿¡æģ¯": 1119,
      "ä¾Ŀ": 1120,
      "ç½®": 1121,
      "çĽĬ": 1122,
      "åħį": 1123,
      "çĻ¾": 1124,
      "å®¤": 1125,
      "æł¸": 1126,
      "åĥ": 1127,
      "éĿ©": 1128,
      "èī¯": 1129,
      "ä»ħ": 1130,
      "æŀĹ": 1131,
      "ä½ľä¸º": 1132,
      "å¾Ģ": 1133,
      "åĪĹ": 1134,
      "æĵ": 1135,
      "ä¸ŃçļĦ": 1136,
      "è¯Ħ": 1137,
      "æĿ¿": 1138,
      "éĻ©": 1139,
      "æĿĳ": 1140,
      "å¤§çļĦ": 1141,
      "éĤ": 1142,
      "åł": 1143,
      "åŃ¦æł¡": 1144,
      "æ¿": 1145,
      "å¯Į": 1146,
      "å¨": 1147,
      "çīĮ": 1148,
      "ä¸įåĲĮ": 1149,
      "ä¾ĭ": 1150,
      "å¤Ł": 1151,
      "åĩı": 1152,
      "è´Ł": 1153,
      "æĻº": 1154,
      "çŃĸ": 1155,
      "ä½ľçĶ¨": 1156,
      "æĻ¯": 1157,
      "è¨Ģ": 1158,
      "äººåĳĺ": 1159,
      "ç²¾ç¥ŀ": 1160,
      "ä¸Ńå¿ĥ": 1161,
      "äººçļĦ": 1162,
      "åŃ©": 1163,
      "äº¿": 1164,
      "äºī": 1165,
      "æĪĲä¸º": 1166,
      "äºļ": 1167,
      "åĽ´": 1168,
      "ä¿®": 1169,
      "è¿Ļæł·": 1170,
      "å¾Īå¤ļ": 1171,
      "ä¸ĢäºĽ": 1172,
      "å¿µ": 1173,
      "åı·": 1174,
      "éĺ³": 1175,
      "åĽ½éĻħ": 1176,
      "ç¾¤": 1177,
      "æĲ": 1178,
      "å¿Ĺ": 1179,
      "è®¸": 1180,
      "æĮī": 1181,
      "ä¹Łæĺ¯": 1182,
      "æĶ¿åºľ": 1183,
      "æĭ©": 1184,
      "åĩºçİ°": 1185,
      "éĿŀå¸¸": 1186,
      "åıĭ": 1187,
      "åĽŃ": 1188,
      "å¾ĭ": 1189,
      "çĹĩ": 1190,
      "åĽ¾": 1191,
      "ä½ı": 1192,
      "åİ¿": 1193,
      "æ²³": 1194,
      "åĲ«": 1195,
      "ä»½": 1196,
      "æĹ©": 1197,
      "è¿ŀ": 1198,
      "å¤§åŃ¦": 1199,
      "ç®Ĺ": 1200,
      "âĢĿãĢĤ": 1201,
      "å®³": 1202,
      "ç»Ī": 1203,
      "è¯Ń": 1204,
      "ç¬¬ä¸Ģ": 1205,
      "å®ŀçİ°": 1206,
      "åĲĥ": 1207,
      "äºĴ": 1208,
      "èª": 1209,
      "èĤ¡": 1210,
      "è¿ĻäºĽ": 1211,
      "çĽ¸åħ³": 1212,
      "å¯¹äºİ": 1213,
      "ä¸Ģå®ļ": 1214,
      "å¯Ĩ": 1215,
      "ç§ĳæĬĢ": 1216,
      "ç§ĳåŃ¦": 1217,
      "åıĮ": 1218,
      "éĢīæĭ©": 1219,
      "æĭī": 1220,
      "å·²ç»ı": 1221,
      "èĩªå·±çļĦ": 1222,
      "åģ¥åº·": 1223,
      "è¿ľ": 1224,
      "é»Ħ": 1225,
      "åħ¨åĽ½": 1226,
      "æĿĲæĸĻ": 1227,
      "åĿĩ": 1228,
      "èĪ¬": 1229,
      "æĻ®": 1230,
      "éħĴ": 1231,
      "æ¿Ģ": 1232,
      "åĲĪä½ľ": 1233,
      "è§Ĵ": 1234,
      "åħ´": 1235,
      "éĴ¢": 1236,
      "çĨ": 1237,
      "æĹ¶åĢĻ": 1238,
      "åħ¶ä»ĸ": 1239,
      "çļĦä¸Ģ": 1240,
      "è®²": 1241,
      "è§ī": 1242,
      "æł¹æį®": 1243,
      "ĠãĢĤ": 1244,
      "è¿ĩç¨ĭ": 1245,
      "åĤ": 1246,
      "åĽłæŃ¤": 1247,
      "åĶ®": 1248,
      "æĬķèµĦ": 1249,
      "è¯·": 1250,
      "æĹı": 1251,
      "ä¸įæĸŃ": 1252,
      "å¤ĦçĲĨ": 1253,
      "åı¤": 1254,
      "ä½Ĩæĺ¯": 1255,
      "ä¸įæĺ¯": 1256,
      "çĽ®åīį": 1257,
      "æŁĵ": 1258,
      "æķħ": 1259,
      "è´¢": 1260,
      "12": 1261,
      "åĲ¸": 1262,
      "å¾®": 1263,
      "é¡»": 1264,
      "ä»¥ä¸Ĭ": 1265,
      "å©": 1266,
      "åĪ°äºĨ": 1267,
      "åıĳçĶŁ": 1268,
      "èŃ": 1269,
      "èĭ±": 1270,
      "æī¹": 1271,
      "çľ¼": 1272,
      "éŁ³": 1273,
      "ä¸įèĥ½": 1274,
      "åĪĿ": 1275,
      "åĥı": 1276,
      "è½»": 1277,
      "æĿİ": 1278,
      "åŁİå¸Ĥ": 1279,
      "è®Ń": 1280,
      "æĸ¹å¼ı": 1281,
      "éĵ¶": 1282,
      "éħ¸": 1283,
      "æ¤": 1284,
      "çŃĳ": 1285,
      "åŃ©åŃĲ": 1286,
      "æłĩåĩĨ": 1287,
      "åŁºç¡": 1288,
      "éĥ¨éĹ¨": 1289,
      "ä¸¾": 1290,
      "èĨ": 1291,
      "ç¦ı": 1292,
      "åŁºç¡Ģ": 1293,
      "ç¨³": 1294,
      "è¯¾": 1295,
      "éĵģ": 1296,
      "æľ¨": 1297,
      "åįķä½į": 1298,
      "éĥ¨åĪĨ": 1299,
      "æŃ¢": 1300,
      "å±ħ": 1301,
      "åī¯": 1302,
      "åºĶçĶ¨": 1303,
      "çĶ·": 1304,
      "æķ°æį®": 1305,
      "è¡¨ç¤º": 1306,
      "å¤§å®¶": 1307,
      "æĬĹ": 1308,
      "çĸ«": 1309,
      "åİĤ": 1310,
      "åĮ»éĻ¢": 1311,
      "æĭ¬": 1312,
      "èģļ": 1313,
      "çıŃ": 1314,
      "çĵ": 1315,
      "è¾¹": 1316,
      "æ¬¾": 1317,
      "èĥ½å¤Ł": 1318,
      "è¾ĵ": 1319,
      "ä¸ĢèĪ¬": 1320,
      "åŃ£": 1321,
      "ä¼¤": 1322,
      "å°½": 1323,
      "åħ¶ä¸Ń": 1324,
      "åīĤ": 1325,
      "å®¡": 1326,
      "200": 1327,
      "çļĦæĺ¯": 1328,
      "é¦Ļ": 1329,
      "çºª": 1330,
      "å¥ĸ": 1331,
      "åİĨåı²": 1332,
      "çķ¥": 1333,
      "åºķ": 1334,
      "ç®Ģ": 1335,
      "éĥ½æĺ¯": 1336,
      "å£°": 1337,
      "11": 1338,
      "å®ĺ": 1339,
      "çªģ": 1340,
      "åĳ³": 1341,
      "å·¥ä¸ļ": 1342,
      "æĸ¹æ³ķ": 1343,
      "ç£": 1344,
      "åį«": 1345,
      "éļľ": 1346,
      "å®Ŀ": 1347,
      ":âĢľ": 1348,
      "æ±½": 1349,
      "åħ«": 1350,
      "ä¸»ä¹ī": 1351,
      "å¼Ģå§ĭ": 1352,
      "ĠãĢģ": 1353,
      "æ½": 1354,
      "æľīéĻĲ": 1355,
      "çł´": 1356,
      "ä»ĭ": 1357,
      "çĻľ": 1358,
      "æ¶²": 1359,
      "åįĬ": 1360,
      "çĩ": 1361,
      "çĻľé£İ": 1362,
      "å¼Ģå±ķ": 1363,
      "æĭħ": 1364,
      "çĻ½çĻľé£İ": 1365,
      "ä¿ĥ": 1366,
      "èµĦæºĲ": 1367,
      "åĬŁèĥ½": 1368,
      "åĮħæĭ¬": 1369,
      "åħ¨éĿ¢": 1370,
      "è¿Ļç§į": 1371,
      "æĪĸèĢħ": 1372,
      "é²": 1373,
      "å®£": 1374,
      "å»ºçŃĳ": 1375,
      "è¡¥": 1376,
      "éĨ": 1377,
      "å¸Į": 1378,
      "äº²": 1379,
      "æľºæŀĦ": 1380,
      "èĴ": 1381,
      "èİ·å¾Ĺ": 1382,
      "åĸľ": 1383,
      "ç¾İåĽ½": 1384,
      "åĨ·": 1385,
      "æ°´å¹³": 1386,
      "èĹ": 1387,
      "åľ°åĮº": 1388,
      "éĽĨåĽ¢": 1389,
      "ç½Ĺ": 1390,
      "åį´": 1391,
      "è§Ħå®ļ": 1392,
      "æĽ¾": 1393,
      "çĶ±äºİ": 1394,
      "ç¼º": 1395,
      "å¿ħé¡»": 1396,
      "åį°": 1397,
      "æĺŁ": 1398,
      "é¾Ļ": 1399,
      "æ±¡": 1400,
      "åĿļæĮģ": 1401,
      "åħŃ": 1402,
      "ç§¯æŀģ": 1403,
      "åįļ": 1404,
      "æŀĲ": 1405,
      "ä¿ĿæĬ¤": 1406,
      "æĺ¥": 1407,
      "æĪĳåĽ½": 1408,
      "ç»ĵæŀĦ": 1409,
      "æ¯Ĵ": 1410,
      "ç¿": 1411,
      "åĮĹäº¬": 1412,
      "é¢ĨåŁŁ": 1413,
      "çİ°åľ¨": 1414,
      "æĹħ": 1415,
      "çķĻ": 1416,
      "é¢Ĩå¯¼": 1417,
      "å¸®": 1418,
      "åĬłå¼º": 1419,
      "ä¸´": 1420,
      "å¢ŀéķ¿": 1421,
      "æī§": 1422,
      "ä»£è¡¨": 1423,
      "å·®": 1424,
      "æ³¨æĦı": 1425,
      "ä¸ĢæŃ¥": 1426,
      "æıĲåįĩ": 1427,
      "åı¦": 1428,
      "30": 1429,
      "åĽº": 1430,
      "éĢģ": 1431,
      "çĭ¬": 1432,
      "æ¯Ķè¾ĥ": 1433,
      "15": 1434,
      "202": 1435,
      "ç»§": 1436,
      "å·´": 1437,
      "ç¯": 1438,
      "çĸ¾": 1439,
      "è´Ń": 1440,
      "åī§": 1441,
      "çĶ»": 1442,
      "ä½Ļ": 1443,
      "ç´§": 1444,
      "åįł": 1445,
      "äºĨè§£": 1446,
      "æİ§åĪ¶": 1447,
      "äºĳ": 1448,
      "å¢ŀåĬł": 1449,
      "æŃ¦": 1450,
      "æįŁ": 1451,
      "ä¸°": 1452,
      "æ¹ĸ": 1453,
      "æĹ¶ä»£": 1454,
      "é»ĳ": 1455,
      "å¾ģ": 1456,
      "ç¨İ": 1457,
      "ç»¼": 1458,
      "ç¬¬äºĮ": 1459,
      "èĳĹ": 1460,
      "åĬ³": 1461,
      "å®¢æĪ·": 1462,
      "å½¢æĪĲ": 1463,
      "å¤®": 1464,
      "éº": 1465,
      "å¾ħ": 1466,
      "å¹³åı°": 1467,
      "å¼Ĥ": 1468,
      "åįĥ": 1469,
      "å®ĮæĪĲ": 1470,
      "è´£ä»»": 1471,
      "åŁºæľ¬": 1472,
      "æĶ¹éĿ©": 1473,
      "ä¹¡": 1474,
      "ä¸ªäºº": 1475,
      "ç»¿": 1476,
      "çĤº": 1477,
      "ç»ľ": 1478,
      "æĢĿæĥ³": 1479,
      "åħ³ç³»": 1480,
      "çĤİ": 1481,
      "è¿ĺæĺ¯": 1482,
      "åĪ»": 1483,
      "åŃ¦éĻ¢": 1484,
      "åĵģçīĮ": 1485,
      "åĪĨæŀĲ": 1486,
      "æķĻåŃ¦": 1487,
      "é¥®": 1488,
      "è§£åĨ³": 1489,
      "å¹´çļĦ": 1490,
      "çº³": 1491,
      "èĢĮä¸Ķ": 1492,
      "æ¦": 1493,
      "åĨħå®¹": 1494,
      "ä¸įä¼ļ": 1495,
      "æ¬¢": 1496,
      "éĤ£ä¹Ī": 1497,
      "æĶ¿çŃĸ": 1498,
      "æľīæķĪ": 1499,
      "é¸": 1500,
      "æľīéĻĲåħ¬åı¸": 1501,
      "èĢĲ": 1502,
      "çİ°ä»£": 1503,
      "åıĳçİ°": 1504,
      "æĶ¿æ²»": 1505,
      "çŁŃ": 1506,
      "åºĹ": 1507,
      "èĮ¶": 1508,
      "è®¤ä¸º": 1509,
      "é¼": 1510,
      "æłĳ": 1511,
      "åĪ¶éĢł": 1512,
      "å¯¼èĩ´": 1513,
      "çĶ³": 1514,
      "åĲĦç§į": 1515,
      "ä¸ĬçļĦ": 1516,
      "åĽ½åĨħ": 1517,
      "éľĢæ±Ĥ": 1518,
      "é¢Ŀ": 1519,
      "éģ¿": 1520,
      "åį¡": 1521,
      "åı¥": 1522,
      "æ¸¯": 1523,
      "ç«ŀ": 1524,
      "åĩ»": 1525,
      "æī¾": 1526,
      "ç»ıèĲ¥": 1527,
      "æ³¢": 1528,
      "äº§çĶŁ": 1529,
      "æ¯į": 1530,
      "æĸ°çļĦ": 1531,
      "æĮ¥": 1532,
      "äººæīį": 1533,
      "ç§»": 1534,
      "éķĩ": 1535,
      "èĻ½": 1536,
      "è´§": 1537,
      "),": 1538,
      "æĽ´åĬł": 1539,
      "å¯Ł": 1540,
      "åĪ©çĶ¨": 1541,
      "æŁĲ": 1542,
      "æľīåħ³": 1543,
      "åĲ¦": 1544,
      "åĪ¶åº¦": 1545,
      "ä¸ºäºĨ": 1546,
      "èĥľ": 1547,
      "ä½ĵç³»": 1548,
      "å¸ĮæľĽ": 1549,
      "èĪª": 1550,
      "å²ģ": 1551,
      "åĨł": 1552,
      "è¿Ļä¸Ģ": 1553,
      "æ±ī": 1554,
      "æŃ»": 1555,
      "ä¼ļè®®": 1556,
      ",âĢľ": 1557,
      "ä»¤": 1558,
      "ç»¼åĲĪ": 1559,
      "æİ¨è¿Ľ": 1560,
      "çĶ¨äºİ": 1561,
      "æ¤į": 1562,
      "æ±½è½¦": 1563,
      "éĢłæĪĲ": 1564,
      "éĩįçĤ¹": 1565,
      "åħ°": 1566,
      "å½ķ": 1567,
      "çŁ¥è¯Ĩ": 1568,
      "æ¢¦": 1569,
      "ä¼łç»Ł": 1570,
      "åº§": 1571,
      "æĿ¥çļĦ": 1572,
      "éĺ¿": 1573,
      "å®ŀæĸ½": 1574,
      "èĭı": 1575,
      "çĹĽ": 1576,
      "å®¹æĺĵ": 1577,
      "æİ¨åĬ¨": 1578,
      "çĽ®æłĩ": 1579,
      "å°Ħ": 1580,
      "æīĢæľī": 1581,
      "èĩªçĦ¶": 1582,
      "çīĽ": 1583,
      "ç»Ŀ": 1584,
      "ä¹ĭåĲİ": 1585,
      "åĨĻ": 1586,
      "åį±": 1587,
      "æ¬§": 1588,
      "æį¢": 1589,
      "å¼Ģåıĳ": 1590,
      "çīĪ": 1591,
      "æĶ¯æĮģ": 1592,
      "æĭ¥": 1593,
      "ä¹¦è®°": 1594,
      "çĸ¾çĹħ": 1595,
      "çļĦæĹ¶åĢĻ": 1596,
      "ç¼ĸ": 1597,
      "åŃĺåľ¨": 1598,
      "éĴŁ": 1599,
      "æ°§": 1600,
      "è¯»": 1601,
      "ä¸ļåĬ¡": 1602,
      "å¦Ĥä½ķ": 1603,
      "ç§Ģ": 1604,
      "éĩĩçĶ¨": 1605,
      "ç½ĳç»ľ": 1606,
      "éģĩ": 1607,
      "çŁ¥éģĵ": 1608,
      "ä¸Ńå¤®": 1609,
      "æľĥ": 1610,
      "æ¶Īè´¹": 1611,
      "ç«ł": 1612,
      "æĦ¿": 1613,
      "åħļçļĦ": 1614,
      "äºĨä¸Ģ": 1615,
      "ç«¯": 1616,
      "ä¿ĿæĮģ": 1617,
      "åĲ¬": 1618,
      "ä¹Ŀ": 1619,
      "æķĪæŀľ": 1620,
      "çī¹åĪ«": 1621,
      "èĽ": 1622,
      "çī¹èī²": 1623,
      "çĮ®": 1624,
      "ä¸įä»ħ": 1625,
      "æĤ¨": 1626,
      "æĿ¡ä»¶": 1627,
      "åĵª": 1628,
      "èıľ": 1629,
      "æĸĹ": 1630,
      "åºĶè¯¥": 1631,
      "å»ºç«ĭ": 1632,
      "æĴŃ": 1633,
      "åºŃ": 1634,
      "å®Ī": 1635,
      "æ´Ĺ": 1636,
      "è´Łè´£": 1637,
      "åĬª": 1638,
      "å±Ĭ": 1639,
      "éĢĲ": 1640,
      "èŃ¦": 1641,
      "é¢ĳ": 1642,
      "è¾¾åĪ°": 1643,
      "è¿Ľä¸ĢæŃ¥": 1644,
      "Â·": 1645,
      "å®ŀéĻħ": 1646,
      "âĢĶâĢĶ": 1647,
      "ç²ī": 1648,
      "æĢİ": 1649,
      "çĶļ": 1650,
      "èīºæľ¯": 1651,
      "æĩ": 1652,
      "ãĢĮ": 1653,
      "ç»ĵåĲĪ": 1654,
      "èģĮä¸ļ": 1655,
      "æĢ¥": 1656,
      "åľ°æĸ¹": 1657,
      "å¤«": 1658,
      "100": 1659,
      "ä»ª": 1660,
      "èįī": 1661,
      "åºĬ": 1662,
      "éĸ": 1663,
      "æĵį": 1664,
      "èº«ä½ĵ": 1665,
      "æĪı": 1666,
      "å·¦": 1667,
      "æĿ¥è¯´": 1668,
      "æĭĽ": 1669,
      "ãĢį": 1670,
      "åºı": 1671,
      "ä»į": 1672,
      "è¿°": 1673,
      "èĤī": 1674,
      "åĽ°": 1675,
      "å³": 1676,
      "ä»·æł¼": 1677,
      "ä¹ħ": 1678,
      "ä¸ĥ": 1679,
      "åı³": 1680,
      "åĬªåĬĽ": 1681,
      "è¿ĺæľī": 1682,
      "åıĸå¾Ĺ": 1683,
      "é£Łåĵģ": 1684,
      "æıĲåĩº": 1685,
      "è¿Ļæĺ¯": 1686,
      "æİĪ": 1687,
      "åĳ¢": 1688,
      "è²": 1689,
      "å½©": 1690,
      "æİª": 1691,
      "æ´²": 1692,
      "ç»į": 1693,
      "é¡º": 1694,
      "è·µ": 1695,
      "ä¸įè¦ģ": 1696,
      "ä¿ĥè¿Ľ": 1697,
      "çĿ£": 1698,
      "åŁ¹åħ»": 1699,
      "ä»·åĢ¼": 1700,
      "ä¹ĭä¸Ģ": 1701,
      "ä¸Ģèµ·": 1702,
      "äº¿åħĥ": 1703,
      "æĮģç»Ń": 1704,
      "åİŁåĽł": 1705,
      "åª": 1706,
      "èĸ": 1707,
      "è¿ĲåĬ¨": 1708,
      "%,": 1709,
      "æ¢°": 1710,
      "50": 1711,
      "éĻĪ": 1712,
      "åģľ": 1713,
      "éĺ¶": 1714,
      "è¯Ĭ": 1715,
      "ä¼ĺåĬ¿": 1716,
      "è½®": 1717,
      "è½¯": 1718,
      "å¸®åĬ©": 1719,
      "é½": 1720,
      "ä¹°": 1721,
      "åĩĢ": 1722,
      "ä¸Ĭæµ·": 1723,
      "æĻĤ": 1724,
      "æ£ĢæŁ¥": 1725,
      "éĶĢåĶ®": 1726,
      "çĶ²": 1727,
      "çµ": 1728,
      "çĻ»": 1729,
      "ç»©": 1730,
      "è´µ": 1731,
      "é¤": 1732,
      "æĪĺçķ¥": 1733,
      "18": 1734,
      "è¿½": 1735,
      "é£ŀ": 1736,
      "éĴĪ": 1737,
      "å¡ĳ": 1738,
      "ç´¢": 1739,
      "èĻ½çĦ¶": 1740,
      "éĿł": 1741,
      "æĻºèĥ½": 1742,
      "ä¿Ŀéļľ": 1743,
      "è®¡åĪĴ": 1744,
      "ç¨³å®ļ": 1745,
      "åħ¨çĲĥ": 1746,
      "é¦Ĩ": 1747,
      "æķ£": 1748,
      "æĽ´å¤ļ": 1749,
      "ç»ĥ": 1750,
      "æ¯ĶèµĽ": 1751,
      "åıĤåĬł": 1752,
      "çĽ´æİ¥": 1753,
      "è¿Ľåħ¥": 1754,
      "å§Ķåĳĺ": 1755,
      "æĶ»": 1756,
      "å®ģ": 1757,
      "äººä»¬": 1758,
      "åıªæľī": 1759,
      "æĪĲåĬŁ": 1760,
      "åħ¸": 1761,
      "éĶ®": 1762,
      "æĭ¥æľī": 1763,
      "äºĪ": 1764,
      "çĶ¨æĪ·": 1765,
      "è·Ł": 1766,
      "æ©": 1767,
      "èĦĳ": 1768,
      "ä¼¼": 1769,
      "éĩĳèŀį": 1770,
      "å°¼": 1771,
      "åĨ²": 1772,
      "åĮ»çĸĹ": 1773,
      "éŃ": 1774,
      "è½½": 1775,
      "çĶŁæĢģ": 1776,
      "æħ¢": 1777,
      "éļıçĿĢ": 1778,
      "èĤ¤": 1779,
      "éĢĻ": 1780,
      "äºĭä¸ļ": 1781,
      "ä¹ĭéĹ´": 1782,
      "èıĮ": 1783,
      "ç¶": 1784,
      "éĢı": 1785,
      "åħ±åĲĮ": 1786,
      "è¯ī": 1787,
      "æ°ĳæĹı": 1788,
      "å¸Ń": 1789,
      "èĵ": 1790,
      "éĢĢ": 1791,
      "éĴ±": 1792,
      "èĭ¦": 1793,
      "å¥ĭ": 1794,
      "ä»ĭç»į": 1795,
      "æķĻå¸Ī": 1796,
      "åıĬæĹ¶": 1797,
      "èĥ¶": 1798,
      "çĶļèĩ³": 1799,
      "åŁ¹è®Ń": 1800,
      "çĶµåŃĲ": 1801,
      "åģĩ": 1802,
      "æĻļ": 1803,
      "å¥ĩ": 1804,
      "èĲ½å®ŀ": 1805,
      "æī©": 1806,
      "æīĺ": 1807,
      "åĬłå·¥": 1808,
      "åħħåĪĨ": 1809,
      "èį£": 1810,
      "èĦ±": 1811,
      "å¥Ĺ": 1812,
      "è¡Įä¸º": 1813,
      "æ³Ľ": 1814,
      "åŃķ": 1815,
      "åı¶": 1816,
      "æĮīçħ§": 1817,
      "è¿ĩç¨ĭä¸Ń": 1818,
      "èĨľ": 1819,
      "å®«": 1820,
      "ç¬¬ä¸ī": 1821,
      "æľĿ": 1822,
      "ä¸¥éĩį": 1823,
      "æĢ§èĥ½": 1824,
      "çĪ¶": 1825,
      "ä»ĺ": 1826,
      "ç¥¨": 1827,
      "åĺ": 1828,
      "å»¶": 1829,
      "æİ¢": 1830,
      "çļĦåıĳå±ķ": 1831,
      "æĿ¾": 1832,
      "æ°¸": 1833,
      "åĪĺ": 1834,
      "è§ĦåĪĴ": 1835,
      "äº¤éĢļ": 1836,
      "æĢ§çļĦ": 1837,
      "éĶĻ": 1838,
      "åıĳå±ķçļĦ": 1839,
      "åıĳæĮ¥": 1840,
      "è´¯": 1841,
      "16": 1842,
      "ä»Ĭå¹´": 1843,
      "çĴ": 1844,
      "æ¯ķ": 1845,
      "æł¸å¿ĥ": 1846,
      "äº«": 1847,
      "ä»»ä½ķ": 1848,
      "æīįèĥ½": 1849,
      "æĬ¥åĳĬ": 1850,
      "åºĨ": 1851,
      "ç»§ç»Ń": 1852,
      "è³": 1853,
      "éĽ¨": 1854,
      "ä¹İ": 1855,
      "å¨ģ": 1856,
      "å¥¥": 1857,
      "åĢĭ": 1858,
      "ä¸ĢçĽ´": 1859,
      "ä¸¤ä¸ª": 1860,
      "åħ³äºİ": 1861,
      "å½»": 1862,
      "èĥĮ": 1863,
      "çĽĸ": 1864,
      "æĬĵ": 1865,
      "å®ĮåĸĦ": 1866,
      "çĺ": 1867,
      "æŃĮ": 1868,
      "è¶ħè¿ĩ": 1869,
      "å¾ĹåĪ°": 1870,
      "åĩıå°ĳ": 1871,
      "ä»ĸçļĦ": 1872,
      "èĥ½æºĲ": 1873,
      "åİļ": 1874,
      "çĨŁ": 1875,
      "ä¸°å¯Į": 1876,
      "çģµ": 1877,
      "æĸ¹æ¡Ī": 1878,
      "éģ¿åħį": 1879,
      "æĹħæ¸¸": 1880,
      "é²ľ": 1881,
      "æ²Ļ": 1882,
      "èĮĥåĽ´": 1883,
      "ç¦ģ": 1884,
      "æ¾": 1885,
      "è°Ī": 1886,
      "æ³ķå¾ĭ": 1887,
      "æľĭ": 1888,
      "è¿İ": 1889,
      "åĪ¤": 1890,
      "ä½³": 1891,
      "æĪĲæľ¬": 1892,
      "æķĳ": 1893,
      "ä¼Ł": 1894,
      "èĭ¥": 1895,
      "æĢĢ": 1896,
      "æĿĤ": 1897,
      "ç½ª": 1898,
      "14": 1899,
      "å©ļ": 1900,
      "éĻĦ": 1901,
      "ç»ıè¿ĩ": 1902,
      "æĸ½å·¥": 1903,
      "èĹı": 1904,
      "å®ŀè·µ": 1905,
      "ä¸įåı¯": 1906,
      "å¼ķèµ·": 1907,
      "åªĴ": 1908,
      "ä¸ĵå®¶": 1909,
      "åĪĨéĴŁ": 1910,
      "ä¸Ģæ¬¡": 1911,
      "èĻĳ": 1912,
      "å®Ĺ": 1913,
      "éª¨": 1914,
      "è¯ļ": 1915,
      "åħ³éĶ®": 1916,
      "è§Ħæ¨¡": 1917,
      "ä½Ľ": 1918,
      "ä»¥ä¸ĭ": 1919,
      "çĲĨè®º": 1920,
      "ä¸Ģç§į": 1921,
      "æ¯Ľ": 1922,
      "éł": 1923,
      "é£İéĻ©": 1924,
      "13": 1925,
      "èģĶç½ĳ": 1926,
      "å°¤": 1927,
      "%ãĢĤ": 1928,
      "ç³»åĪĹ": 1929,
      "çļĦå¤§": 1930,
      "åıĺåĮĸ": 1931,
      "çĶŁçī©": 1932,
      "åºĵ": 1933,
      "æľªæĿ¥": 1934,
      "ä¾Ĩ": 1935,
      "æ¨¡å¼ı": 1936,
      "åĽłç´ł": 1937,
      "åĲ¯": 1938,
      "ç¤¾ä¼ļä¸»ä¹ī": 1939,
      "éĩįå¤§": 1940,
      "ç¡¬": 1941,
      "éķ¿æľŁ": 1942,
      "æĪĲç«ĭ": 1943,
      "èħĲ": 1944,
      "ä¸ĩåħĥ": 1945,
      "åºŁ": 1946,
      "æĮĩå¯¼": 1947,
      "åıĹåĪ°": 1948,
      "äº®": 1949,
      "ä¿Ŀè¯ģ": 1950,
      "åĬĽéĩı": 1951,
      "è¡¨çİ°": 1952,
      "æľºæ¢°": 1953,
      "åıĤä¸İ": 1954,
      "å°ģ": 1955,
      "å¤ı": 1956,
      "æľĢåĲİ": 1957,
      "åģļå¥½": 1958,
      "æĿ¯": 1959,
      "åĪļ": 1960,
      "åĿĹ": 1961,
      "æĹ¢": 1962,
      "éģĹ": 1963,
      "éĽ¶": 1964,
      "é±": 1965,
      "èĥŀ": 1966,
      "æľĭåıĭ": 1967,
      "çļĦéĩįè¦ģ": 1968,
      "å®¶åºŃ": 1969,
      "ä»¥æĿ¥": 1970,
      "çĥĪ": 1971,
      "è®¸å¤ļ": 1972,
      "å¹´æĿ¥": 1973,
      "ä¸Ńåįİ": 1974,
      "ç»ıéªĮ": 1975,
      "ç«¥": 1976,
      "èĦĤ": 1977,
      "æı¡": 1978,
      "æİªæĸ½": 1979,
      "æĽ²": 1980,
      "äº¤æµģ": 1981,
      "çĳ": 1982,
      "èµ·æĿ¥": 1983,
      "åºĶå½ĵ": 1984,
      "ç³ĸ": 1985,
      "æľīçļĦ": 1986,
      "æĭ¿": 1987,
      "åĨ³å®ļ": 1988,
      "æ£Ģæµĭ": 1989,
      "æ¶¦": 1990,
      "è¿Ŀ": 1991,
      "æ¶ī": 1992,
      "é±¼": 1993,
      "ç¾¤ä¼Ĺ": 1994,
      "éĿĻ": 1995,
      "çŃĶ": 1996,
      "ä»»åĬ¡": 1997,
      "å¦ĩ": 1998,
      "æ¶Ĥ": 1999,
      "éĻįä½İ": 2000,
      "æ¥¼": 2001,
      "æĪĳçļĦ": 2002,
      "çłĶåıĳ": 2003,
      "çļ®èĤ¤": 2004,
      "éĵ¶è¡Į": 2005,
      "è¡ĮæĶ¿": 2006,
      "ä¸Ŀ": 2007,
      "çĸĳ": 2008,
      "ä¸½": 2009,
      "æĺ¯ä¸Ģç§į": 2010,
      "ç¹": 2011,
      "è´¸": 2012,
      "çĬ¯": 2013,
      "ä¸Ģæł·": 2014,
      "å®ľ": 2015,
      "ä½ĵèĤ²": 2016,
      "æŀ¶": 2017,
      "è¿ĳå¹³": 2018,
      "åĢŁ": 2019,
      "åĨĮ": 2020,
      "éĹ»": 2021,
      "æĺ¾ç¤º": 2022,
      "çī¹çĤ¹": 2023,
      "ç«ŀäºī": 2024,
      "ä¹łè¿ĳå¹³": 2025,
      "æĢİä¹Ī": 2026,
      "éĵ¾": 2027,
      "åĬ±": 2028,
      "åį«çĶŁ": 2029,
      "å·Ŀ": 2030,
      "å¹¸": 2031,
      "æľŁéĹ´": 2032,
      "å¹¿æ³Ľ": 2033,
      "å¹²éĥ¨": 2034,
      "ç¬¦": 2035,
      "èĶ": 2036,
      "æİ¥åıĹ": 2037,
      "æĺ¯åľ¨": 2038,
      "é¡¾": 2039,
      "æĵįä½ľ": 2040,
      "æ´ģ": 2041,
      "åĪº": 2042,
      "æŃ£å¸¸": 2043,
      "å®£ä¼ł": 2044,
      "éĺ¶æ®µ": 2045,
      "æ¸Ĳ": 2046,
      ")ãĢģ": 2047,
      "éĿ¢ç§¯": 2048,
      ")ãĢĤ": 2049,
      "è°¢": 2050,
      "å¢ŀå¼º": 2051,
      "çİ©": 2052,
      "çĥŁ": 2053,
      "åħĪè¿Ľ": 2054,
      "ç©ºéĹ´": 2055,
      "å·¨": 2056,
      "åħ·ä½ĵ": 2057,
      "èĽĭ": 2058,
      "çŁ¿": 2059,
      "æ´¾": 2060,
      "æ¹¿": 2061,
      "æ·±åħ¥": 2062,
      "ä¼ĺç§Ģ": 2063,
      "ç»ĵæŀľ": 2064,
      "âĢĿãĢģ": 2065,
      "çī©è´¨": 2066,
      "çŃ¾": 2067,
      "å»ºè®®": 2068,
      "åĬ³åĬ¨": 2069,
      "æ¡¥": 2070,
      "çĹĩçĬ¶": 2071,
      "åĳĺå·¥": 2072,
      "æ··": 2073,
      "è´«": 2074,
      "å®ŀéªĮ": 2075,
      "æĦıè¯Ĩ": 2076,
      "ãĢĭ,": 2077,
      "èĩªåĬ¨": 2078,
      "é¤Ĳ": 2079,
      "æĹłæ³ķ": 2080,
      "å°±ä¼ļ": 2081,
      "éĺ´": 2082,
      "çĸ«æĥħ": 2083,
      "ç´¯": 2084,
      "åıĳå¸ĥ": 2085,
      "æ±¡æŁĵ": 2086,
      "èļ": 2087,
      "ç¤¼": 2088,
      "çļĦé«ĺ": 2089,
      "å¿ĥçĲĨ": 2090,
      "æĸ¹åĲĳ": 2091,
      "åĨľä¸ļ": 2092,
      "17": 2093,
      "ä¸įè¿ĩ": 2094,
      "ä¼ĳ": 2095,
      "æ±ł": 2096,
      "çĽĽ": 2097,
      "çĽŁ": 2098,
      "ä»İèĢĮ": 2099,
      "å·¥èīº": 2100,
      "çİī": 2101,
      "é¥°": 2102,
      "éļĶ": 2103,
      "çĶ³è¯·": 2104,
      "çļĦäºĭ": 2105,
      "ç»´æĬ¤": 2106,
      "å¤ľ": 2107,
      "åİĭåĬĽ": 2108,
      "ç¢³": 2109,
      "25": 2110,
      "è®°èĢħ": 2111,
      "000": 2112,
      "éľ²": 2113,
      "æĶ¶åħ¥": 2114,
      "ä½łçļĦ": 2115,
      "ç©¿": 2116,
      "çļĩ": 2117,
      "èµĦéĩĳ": 2118,
      "çĩĥ": 2119,
      "çĶ°": 2120,
      "çĶµå½±": 2121,
      "åĩĿ": 2122,
      "çº¸": 2123,
      "æĪĳä»¬çļĦ": 2124,
      "æĺ¯åĲ¦": 2125,
      "èĪŀ": 2126,
      "æĮĩåĩº": 2127,
      "æĦıä¹ī": 2128,
      "æİĮ": 2129,
      "åĤ¨": 2130,
      "å¹¶ä¸Ķ": 2131,
      "çİ°åľº": 2132,
      "ä¹Łæľī": 2133,
      "åĽ¢éĺŁ": 2134,
      "å½¢å¼ı": 2135,
      "ç£¨": 2136,
      "æī¬": 2137,
      "æĪĲæŀľ": 2138,
      "åĲī": 2139,
      "èĤ¥": 2140,
      "è´¥": 2141,
      "åİħ": 2142,
      "æ¸¸æĪı": 2143,
      "çĲĨå¿µ": 2144,
      "åłĤ": 2145,
      "é«ĺçļĦ": 2146,
      "æĿĢ": 2147,
      "è®¾æĸ½": 2148,
      "å¤§éĩı": 2149,
      "40": 2150,
      "è®¿": 2151,
      "è¡£": 2152,
      "é¹": 2153,
      "æĺİç¡®": 2154,
      "å¼±": 2155,
      "åĲĹ": 2156,
      "ä¸įå¾Ĺ": 2157,
      "è¯Ĺ": 2158,
      "åĮºåŁŁ": 2159,
      "é£Łçī©": 2160,
      "å¸Ŀ": 2161,
      "ç¡®ä¿Ŀ": 2162,
      "è§ĦèĮĥ": 2163,
      "ãĢĤâĢľ": 2164,
      "è¸": 2165,
      "è·Ŀ": 2166,
      "å¿«éĢŁ": 2167,
      "æĺİæĺ¾": 2168,
      "è®¡ç®Ĺ": 2169,
      "å°ļ": 2170,
      "é½Ĳ": 2171,
      "çĽĺ": 2172,
      "åħļåĳĺ": 2173,
      "å´": 2174,
      "å¥³æĢ§": 2175,
      "ç¨ĭåº¦": 2176,
      "çľĭåĪ°": 2177,
      "--": 2178,
      "æ»ĳ": 2179,
      "åĨ¬": 2180,
      "çļĦå·¥ä½ľ": 2181,
      "çĶŁåĳ½": 2182,
      "è©": 2183,
      "ç®±": 2184,
      "å®Įåħ¨": 2185,
      "ä¼´": 2186,
      "ç®Ģåįķ": 2187,
      "ç»Ĩèĥŀ": 2188,
      "è´¡": 2189,
      "çīĻ": 2190,
      "åĲĪçĲĨ": 2191,
      "ç½ĳç«Ļ": 2192,
      "åĮĸçļĦ": 2193,
      "è§¦": 2194,
      "è¯¢": 2195,
      "å¸ģ": 2196,
      "å·¦åı³": 2197,
      "æ¸©åº¦": 2198,
      "åŃ¸": 2199,
      "åĪĽéĢł": 2200,
      "æ»¡è¶³": 2201,
      "ä½ľåĵģ": 2202,
      "å¼ĢæĶ¾": 2203,
      "æľºåĪ¶": 2204,
      "èĦļ": 2205,
      "è¡ĮåĬ¨": 2206,
      "èĩªèº«": 2207,
      "åľĭ": 2208,
      "çļĦæĥħåĨµ": 2209,
      "å½Ĵ": 2210,
      "äº¤æĺĵ": 2211,
      "åħ¶å®ŀ": 2212,
      "æī§è¡Į": 2213,
      "éĻ¤äºĨ": 2214,
      "ç¼©": 2215,
      "çĦ¶åĲİ": 2216,
      "éĩĬ": 2217,
      "è®¨": 2218,
      "èī¯å¥½çļĦ": 2219,
      "å¹ħ": 2220,
      "ä¹³": 2221,
      "åħµ": 2222,
      "èľ": 2223,
      "ç¼ĵ": 2224,
      "èģĶåĲĪ": 2225,
      "åĿı": 2226,
      "éģİ": 2227,
      "åĪĨåĪ«": 2228,
      "åįģåĪĨ": 2229,
      "æĹ¥æľ¬": 2230,
      "çĽĳçĿ£": 2231,
      "å°į": 2232,
      "åĩºäºĨ": 2233,
      "å²Ĺ": 2234,
      "è¯į": 2235,
      "2020": 2236,
      "éĺ»": 2237,
      "æĳĦ": 2238,
      "60": 2239,
      "ä¸»ä»»": 2240,
      "éĽĦ": 2241,
      "è´¯å½»": 2242,
      "éĢĶ": 2243,
      "åĮĸåŃ¦": 2244,
      "å³°": 2245,
      "äºĶè¡Į": 2246,
      "çļĦè¯Ŀ": 2247,
      "è¡¨éĿ¢": 2248,
      "åģı": 2249,
      "çĻĮ": 2250,
      "çĬ¶æĢģ": 2251,
      "åĳ¼": 2252,
      "é¼ĵ": 2253,
      "åŁºåľ°": 2254,
      "çĻ¼": 2255,
      "éĽª": 2256,
      "éĩįè¦ģçļĦ": 2257,
      "ç»Łä¸Ģ": 2258,
      "åĢĳ": 2259,
      "æļĸ": 2260,
      "æĿ¨": 2261,
      "æ³¡": 2262,
      "åįĪ": 2263,
      "å§Ķåĳĺä¼ļ": 2264,
      "è°ĥæķ´": 2265,
      "éĽ·": 2266,
      "è¿Ĳè¡Į": 2267,
      "èªī": 2268,
      "é¡¶": 2269,
      "æĮĳ": 2270,
      "åħ³æ³¨": 2271,
      "çİ¯ä¿Ŀ": 2272,
      "äººç±»": 2273,
      "çļĦæĸ°": 2274,
      "åĸľæ¬¢": 2275,
      "æ¯Ķå¦Ĥ": 2276,
      "æĺ¯ä¸Ģä¸ª": 2277,
      "è¿ĻéĩĮ": 2278,
      "å®īè£ħ": 2279,
      "åģļåĪ°": 2280,
      "æĮ¯": 2281,
      "ä¸¥æł¼": 2282,
      "å°¿": 2283,
      "å¡Ķ": 2284,
      "åĭĩ": 2285,
      "èĢĥèĻĳ": 2286,
      "çģ¾": 2287,
      "å¦Ī": 2288,
      "æľºåħ³": 2289,
      "ä¿ĿéĻ©": 2290,
      "æ¦Ĥ": 2291,
      "æħ§": 2292,
      "è¯¯": 2293,
      "çļĦéĹ®é¢ĺ": 2294,
      "å°¤åħ¶": 2295,
      "è¡Ĺ": 2296,
      "èį¯çī©": 2297,
      "ç½²": 2298,
      "æģ¶": 2299,
      "24": 2300,
      "åĢĴ": 2301,
      "æĸĳ": 2302,
      "ç¬ĳ": 2303,
      "æīĵéĢł": 2304,
      "æŃ¤å¤ĸ": 2305,
      "æ³¨åĨĮ": 2306,
      "èĢģå¸Ī": 2307,
      "ç¬¦åĲĪ": 2308,
      "å¸¦æĿ¥": 2309,
      "äºĴèģĶç½ĳ": 2310,
      "çłģ": 2311,
      "æ±ĩ": 2312,
      "åĲ§": 2313,
      "ä½ĵçļĦ": 2314,
      "æ²ī": 2315,
      "æ¯ķä¸ļ": 2316,
      "å²Ľ": 2317,
      "åı«": 2318,
      "è¶ĬæĿ¥": 2319,
      "ç»ĦæĪĲ": 2320,
      "ç»ıå¸¸": 2321,
      "æķ°åŃĹ": 2322,
      "åĿĲ": 2323,
      "è¶ĬæĿ¥è¶Ĭ": 2324,
      "è¶£": 2325,
      "ç½ļ": 2326,
      "èĪĩ": 2327,
      "æĸĩæĺİ": 2328,
      "ä»Ĭå¤©": 2329,
      "å¾ª": 2330,
      "æ´ĭ": 2331,
      "ä¹Łä¸į": 2332,
      "åĪ¶ä½ľ": 2333,
      "ç»¿èī²": 2334,
      "èĻļ": 2335,
      "è±Ĩ": 2336,
      "åĵĪ": 2337,
      "éĥ½æľī": 2338,
      "éĻĨ": 2339,
      "ç§ĳçłĶ": 2340,
      "å¡ŀ": 2341,
      "åįµ": 2342,
      "å°ıæĹ¶": 2343,
      "åħ¬åħ±": 2344,
      "æ®Ĭ": 2345,
      "è¾Ĩ": 2346,
      "ç©ºæ°Ķ": 2347,
      "é¦ĸåħĪ": 2348,
      "åı¥è¯Ŀ": 2349,
      "åĬłå¿«": 2350,
      "æ½®": 2351,
      "ç¬Ķ": 2352,
      "è¿Ĳè¾ĵ": 2353,
      "æĦŁæŁĵ": 2354,
      "ç§ģ": 2355,
      "an": 2356,
      "199": 2357,
      "å«": 2358,
      "æĻ®éĢļ": 2359,
      "çģ¯": 2360,
      "éĩĳå±ŀ": 2361,
      "è´¡çĮ®": 2362,
      "æĿŁ": 2363,
      "åĳĪ": 2364,
      "ä¸įåĲĮçļĦ": 2365,
      "åıªæĺ¯": 2366,
      "è®¤çľŁ": 2367,
      "æĿ¥çľĭ": 2368,
      "æŃ£åľ¨": 2369,
      "åŁºéĩĳ": 2370,
      "æķı": 2371,
      "æĪĲç»©": 2372,
      "2021": 2373,
      "çĶŁçļĦ": 2374,
      "å±ŀäºİ": 2375,
      "èĲ¥åħ»": 2376,
      "çº·": 2377,
      "è¡¡": 2378,
      "è®¢": 2379,
      "åĨ°": 2380,
      "æľīäºĽ": 2381,
      "ç§ĺ": 2382,
      "åŃ¦ç§ĳ": 2383,
      "ç¥ĸ": 2384,
      "çħ¤": 2385,
      "å®½": 2386,
      "éĩİ": 2387,
      "çİ»": 2388,
      "æ³°": 2389,
      "ç¹ģ": 2390,
      "èµĦäº§": 2391,
      "æĹ¶æľŁ": 2392,
      "çĥ§": 2393,
      "åľĨ": 2394,
      "ä¸ĭéĻį": 2395,
      "æĸ¼": 2396,
      "ä¸ºä¸»": 2397,
      "çľŁæŃ£": 2398,
      "æķĪçİĩ": 2399,
      "è´´": 2400,
      "çĽ®çļĦ": 2401,
      "é¢ľ": 2402,
      "æĭį": 2403,
      "ä¹ĭåīį": 2404,
      "åĪ¶å®ļ": 2405,
      "æľ«": 2406,
      "è·¨": 2407,
      "ç§ĭ": 2408,
      "ç¡®å®ļ": 2409,
      "åİŁåĪĻ": 2410,
      "æĶ¹åıĺ": 2411,
      "çĪĨ": 2412,
      "éĴĪå¯¹": 2413,
      "æĦıè§ģ": 2414,
      "èĢĥè¯ķ": 2415,
      "è°ĥæŁ¥": 2416,
      "2019": 2417,
      "æľºä¼ļ": 2418,
      "åªĴä½ĵ": 2419,
      "80": 2420,
      "çĴĥ": 2421,
      "åĬŀåħ¬": 2422,
      "çĿ¡": 2423,
      "æ¢ģ": 2424,
      "åħļå§Ķ": 2425,
      "æĺł": 2426,
      "æľĢç»Ī": 2427,
      "é¾Ħ": 2428,
      "æ°§åĮĸ": 2429,
      "åı¬": 2430,
      "è¼": 2431,
      "äºĮåįģ": 2432,
      "åĦ¿ç«¥": 2433,
      "éĿĴå¹´": 2434,
      "ä¿Ħ": 2435,
      "ä¼°": 2436,
      "éĢŁåº¦": 2437,
      "æ´¥": 2438,
      "æ£®": 2439,
      "æ¾³": 2440,
      "åı¦å¤ĸ": 2441,
      "æĸ°æĹ¶ä»£": 2442,
      "è¯¾ç¨ĭ": 2443,
      "å¾Ħ": 2444,
      "è®¤è¯Ĩ": 2445,
      "ä¹Ļ": 2446,
      "ä¹Łä¼ļ": 2447,
      "æļ´": 2448,
      "åŃĶ": 2449,
      "æķħäºĭ": 2450,
      "æ¥Ń": 2451,
      "åįıä¼ļ": 2452,
      "çĦ¦": 2453,
      "èĤĿ": 2454,
      "ä¼į": 2455,
      "éļĲ": 2456,
      "æ¥ļ": 2457,
      "éŁ©": 2458,
      "åĶĲ": 2459,
      "åĢį": 2460,
      "å¹¿å¤§": 2461,
      "æķ´ä¸ª": 2462,
      "æĥł": 2463,
      "å¯¿": 2464,
      "å¢Ļ": 2465,
      "åĨľæĿĳ": 2466,
      "å°±ä¸ļ": 2467,
      "èĥĥ": 2468,
      "å¯»": 2469,
      "èĳ£": 2470,
      "æĭĵ": 2471,
      "çī¢": 2472,
      "æĶ¹åĸĦ": 2473,
      "éĽĨä¸Ń": 2474,
      "åĸĿ": 2475,
      "2018": 2476,
      "å¥¶": 2477,
      "ä¹±": 2478,
      "ä»İäºĭ": 2479,
      "ç¾İåħĥ": 2480,
      "éĿ¢å¯¹": 2481,
      "åĩºçļĦ": 2482,
      "èĪ¹": 2483,
      "çİ»çĴĥ": 2484,
      "æ¶Īè´¹èĢħ": 2485,
      "ç»ķ": 2486,
      "éĢĤåĲĪ": 2487,
      "23": 2488,
      "åĬĽçļĦ": 2489,
      "å¹¶ä¸į": 2490,
      "èĢĹ": 2491,
      "æ¢ħ": 2492,
      "æĢķ": 2493,
      "ä¸Ģä¸ĭ": 2494,
      "ä¾§": 2495,
      "åĲİçļĦ": 2496,
      "çī©æµģ": 2497,
      "åķĨä¸ļ": 2498,
      "21": 2499,
      "æľīä¸Ģ": 2500,
      "çº¯": 2501,
      "å¹ķ": 2502,
      "èĤ¿": 2503,
      "éĵĿ": 2504,
      "ç¶ĵ": 2505,
      "æĬĺ": 2506,
      "æµĵ": 2507,
      "åįĸ": 2508,
      "å¯Ĵ": 2509,
      "æİī": 2510,
      "æĸ¹ä¾¿": 2511,
      "æķ´ä½ĵ": 2512,
      "ç§Ł": 2513,
      "éĿ©åĳ½": 2514,
      "ç¯ĩ": 2515,
      "çĽĲ": 2516,
      "âĢĿãĢģâĢľ": 2517,
      "å½ĵæĹ¶": 2518,
      "åĪĽä¸ļ": 2519,
      "æĹĹ": 2520,
      "å°Ĭ": 2521,
      "æī¶": 2522,
      "å·¥ä½ľçļĦ": 2523,
      "åıªè¦ģ": 2524,
      "èĢ³": 2525,
      "èĴĻ": 2526,
      "æĹ§": 2527,
      "éģį": 2528,
      "æĥ¯": 2529,
      "æ²»çĲĨ": 2530,
      "åĽ°éļ¾": 2531,
      "èĥİ": 2532,
      "å¦ĤæŃ¤": 2533,
      "å¼ºè°ĥ": 2534,
      "æ³¥": 2535,
      "è¿Ļæł·çļĦ": 2536,
      "åĪĳ": 2537,
      "çī¹æ®Ĭ": 2538,
      "å¤ļçļĦ": 2539,
      "éĩįè§Ĩ": 2540,
      "ä¸įå°ĳ": 2541,
      "æł¹æľ¬": 2542,
      "çı¾": 2543,
      "æº¶": 2544,
      "è¿ĩåİ»": 2545,
      "ä¾Ŀæ³ķ": 2546,
      "å¤ļç§į": 2547,
      "çĽĳç®¡": 2548,
      "åľĪ": 2549,
      "æģ¢": 2550,
      "éĹŃ": 2551,
      "åĩĨå¤ĩ": 2552,
      "å¾Į": 2553,
      "çĶµè§Ĩ": 2554,
      "22": 2555,
      "åħ±äº§": 2556,
      "èµ¢": 2557,
      "2022": 2558,
      "éĢļå¸¸": 2559,
      "æ²Ł": 2560,
      "åħ¨éĥ¨": 2561,
      "æĬĢèĥ½": 2562,
      "éĺµ": 2563,
      "è¿ĲèĲ¥": 2564,
      "éº»": 2565,
      "æµª": 2566,
      "ãĢģãĢĬ": 2567,
      "ä¸Ģå®ļè¦ģ": 2568,
      "ä¼ģä¸ļçļĦ": 2569,
      "å½ĵåľ°": 2570,
      "èħ¹": 2571,
      "è¯¦": 2572,
      "æ¡£": 2573,
      "è·ĳ": 2574,
      "è´¹çĶ¨": 2575,
      "åĬŀæ³ķ": 2576,
      "ä¸ªæľĪ": 2577,
      "éĥ½ä¼ļ": 2578,
      "åıįåºĶ": 2579,
      "æ²¿": 2580,
      "åĭķ": 2581,
      "èĤł": 2582,
      "æ¤įçī©": 2583,
      "éĩĩåıĸ": 2584,
      "æĹ¥å¸¸": 2585,
      "äº¡": 2586,
      "è¯º": 2587,
      "èµµ": 2588,
      "éī": 2589,
      "é«ĺè´¨éĩı": 2590,
      "æŃ£ç¡®": 2591,
      "è¦Ĩ": 2592,
      "æĦŁè§ī": 2593,
      "å§ĭç»Ī": 2594,
      "ä¼Ĭ": 2595,
      "æĿ¥èĩª": 2596,
      "çĲĨè§£": 2597,
      "èĤ¯": 2598,
      "éģĵè·¯": 2599,
      "èµĦæľ¬": 2600,
      "å±ĭ": 2601,
      "é¦Ļæ¸¯": 2602,
      "é¢Ħéĺ²": 2603,
      "è¶ĭ": 2604,
      "è¿ħ": 2605,
      "ç¯®": 2606,
      "ä¸Ģå®ļçļĦ": 2607,
      "ç²Ĵ": 2608,
      "èĤº": 2609,
      "ä¾µ": 2610,
      "çªĹ": 2611,
      "æ´Ľ": 2612,
      "èĥ¡": 2613,
      "åį·": 2614,
      "æĻºæħ§": 2615,
      "çĲĥéĺŁ": 2616,
      "çŃ¹": 2617,
      "æŃ£å¼ı": 2618,
      "è¿·": 2619,
      "èĩªçĶ±": 2620,
      "çĽ¸ä¿¡": 2621,
      "in": 2622,
      "æĪª": 2623,
      "åħ¼": 2624,
      "±ä¹Ĳ": 2625,
      "è½¯ä»¶": 2626,
      "70": 2627,
      "åĮħè£ħ": 2628,
      "æ¯ıå¤©": 2629,
      "æķĻæİĪ": 2630,
      "åŃĻ": 2631,
      "çİ°è±¡": 2632,
      "éŁ³ä¹Ĳ": 2633,
      "è´¨çļĦ": 2634,
      "å®ĥçļĦ": 2635,
      "èģĶç³»": 2636,
      "å®īæİĴ": 2637,
      "èĲ¨": 2638,
      "ãĢĲ": 2639,
      "ä½įäºİ": 2640,
      "çĽ¸å¯¹": 2641,
      "åĲĦç±»": 2642,
      "åĢº": 2643,
      "æŃ¤æ¬¡": 2644,
      "å¼ºåĮĸ": 2645,
      "è¯¸": 2646,
      "ãĢĳ": 2647,
      "éĨĴ": 2648,
      "å¤§ä¼ļ": 2649,
      "èĤĮ": 2650,
      "ç¤¾åĮº": 2651,
      "é¸¡": 2652,
      "åĩºåı£": 2653,
      "åķĨåĵģ": 2654,
      "é«Ķ": 2655,
      "é«ĺæł¡": 2656,
      "è°ĵ": 2657,
      "æ½ľ": 2658,
      "æģ¢å¤į": 2659,
      "é«ĺåº¦": 2660,
      "åıĮæĸ¹": 2661,
      "æģ©": 2662,
      "å¼¹": 2663,
      "ä¸»é¢ĺ": 2664,
      "åĴ¨": 2665,
      "ç¼ĺ": 2666,
      "é¥®é£Ł": 2667,
      "è¾ħ": 2668,
      "28": 2669,
      "å¤§å¤ļ": 2670,
      "ç«Ł": 2671,
      "åĲĦé¡¹": 2672,
      "åħ¬éĩĮ": 2673,
      "å±±ä¸ľ": 2674,
      "åĪ·": 2675,
      "ç²ĺ": 2676,
      "åħ·å¤ĩ": 2677,
      "è¾Ľ": 2678,
      "éī´": 2679,
      "çĵ¦": 2680,
      "èŀįåĲĪ": 2681,
      "çŀ": 2682,
      "å¿ĺ": 2683,
      "åĪĨä¸º": 2684,
      "æ³½": 2685,
      "èªª": 2686,
      "ä¸ľè¥¿": 2687,
      "éľĩ": 2688,
      "åĲ´": 2689,
      "åĮ»åŃ¦": 2690,
      "åĲ¨": 2691,
      "26": 2692,
      "ä¸ĢåĪĩ": 2693,
      "ä¸įè¶³": 2694,
      "åĮ»çĶŁ": 2695,
      "èĵĿ": 2696,
      "æĲŃ": 2697,
      "çĶĺ": 2698,
      "æĽ¾ç»ı": 2699,
      "åĲĮå¿Ĺ": 2700,
      "äººä½ĵ": 2701,
      "åĬ¨åĬĽ": 2702,
      "çİ°ä»£åĮĸ": 2703,
      "ä¾ĽåºĶ": 2704,
      "é²ģ": 2705,
      "åĶ¯": 2706,
      "æµĻ": 2707,
      "ä¸ĭæĿ¥": 2708,
      "å¹³æĸ¹": 2709,
      "ç¿»": 2710,
      "éķľ": 2711,
      "è§īå¾Ĺ": 2712,
      "è´·": 2713,
      "æĬķåħ¥": 2714,
      "æĹłè®º": 2715,
      "çĤ¼": 2716,
      "ä¹łæĥ¯": 2717,
      "åģ¿": 2718,
      "èĢĮæĺ¯": 2719,
      "æ®ĸ": 2720,
      "æı´": 2721,
      "è§Ĩé¢ĳ": 2722,
      "æķ°éĩı": 2723,
      "åĴ¨è¯¢": 2724,
      "éĺ²æŃ¢": 2725,
      "èĦī": 2726,
      "èµĦæĸĻ": 2727,
      "ç·": 2728,
      "æķ¬": 2729,
      "è£ģ": 2730,
      "åĨħçļĦ": 2731,
      "æł·çļĦ": 2732,
      "åĶ±": 2733,
      "åľ³": 2734,
      "åĬłåħ¥": 2735,
      "ä»¥åĲİ": 2736,
      "å¿ħè¦ģ": 2737,
      "èģĮå·¥": 2738,
      "æīĭæľ¯": 2739,
      "æ¯«": 2740,
      "éĽħ": 2741,
      "å¹¸ç¦ı": 2742,
      "åĵªäºĽ": 2743,
      "å¹¼": 2744,
      "å°ĺ": 2745,
      "éķ·": 2746,
      "æīİ": 2747,
      "æĢ§åĴĮ": 2748,
      "è¯Ħä»·": 2749,
      "å¥ĭæĸĹ": 2750,
      "éĶħ": 2751,
      "æĢ»ä¹¦è®°": 2752,
      "æ·±åľ³": 2753,
      "ä»ģ": 2754,
      "äº¦": 2755,
      "æ¶¨": 2756,
      "éĵľ": 2757,
      "èĭĹ": 2758,
      "ä¸įåĪ°": 2759,
      "åĲĮæ¯Ķ": 2760,
      "åĪ¸": 2761,
      "èİ«": 2762,
      "èħº": 2763,
      "æ·¡": 2764,
      "æľīæīĢ": 2765,
      "ä¸´åºĬ": 2766,
      "åĩºæĿ¥": 2767,
      "çĳŀ": 2768,
      "èĸĦ": 2769,
      "æľĹ": 2770,
      "ä¹Į": 2771,
      "è¯´è¿ĩ": 2772,
      "è¿ª": 2773,
      "éĺŁä¼į": 2774,
      "å©´": 2775,
      "è´¸æĺĵ": 2776,
      "è°ģ": 2777,
      "çº¤": 2778,
      "æ°ı": 2779,
      "åĨįæ¬¡": 2780,
      "ä½įç½®": 2781,
      "çĦ¶èĢĮ": 2782,
      "å½ĵçĦ¶": 2783,
      "æķ¢": 2784,
      "ç¬¬åįģ": 2785,
      "æ¹¾": 2786,
      "çĦ¡": 2787,
      "åĭ¤": 2788,
      "æľīæľº": 2789,
      "çĺ¤": 2790,
      "åı¦ä¸Ģ": 2791,
      "æĸ¹éĿ¢çļĦ": 2792,
      "ä¸ģ": 2793,
      "äº§åĵģçļĦ": 2794,
      "åĪ©çĽĬ": 2795,
      "æĤī": 2796,
      "èĽĭçĻ½": 2797,
      "«çĹ": 2798,
      "æĳ©": 2799,
      "ä¸ŃåĽ½çī¹èī²": 2800,
      "ä¹ĺ": 2801,
      "æĸ°éĹ»": 2802,
      "å¹¿ä¸ľ": 2803,
      "__": 2804,
      "Â°": 2805,
      "èĦı": 2806,
      "æ©Ł": 2807,
      "ä¹ı": 2808,
      "éģµ": 2809,
      "è£Ĥ": 2810,
      "è§Ī": 2811,
      "æĽ´å¥½": 2812,
      "2017": 2813,
      "å¢¨": 2814,
      "ä½ĵçİ°": 2815,
      "èļĢ": 2816,
      "åĩ¡": 2817,
      "ç¨ĭåºı": 2818,
      "è«": 2819,
      "èµĦæł¼": 2820,
      "ä¸ĸçºª": 2821,
      "å®ĥä»¬": 2822,
      "æĪĲéķ¿": 2823,
      "æĽ¼": 2824,
      "çĶŁç´ł": 2825,
      "ãĢĭãĢģãĢĬ": 2826,
      "æī©å¤§": 2827,
      "çļĦå°ı": 2828,
      "æľĢå¤§çļĦ": 2829,
      "ä¸ŃåĮ»": 2830,
      "åĲĪåĲĮ": 2831,
      "æŀĦå»º": 2832,
      "å¾Ģå¾Ģ": 2833,
      "è¿Ľè¡ĮäºĨ": 2834,
      "æ¼«": 2835,
      "ç»ª": 2836,
      "çĪ¶æ¯į": 2837,
      "æ¶µ": 2838,
      "åĲĮåŃ¦": 2839,
      "åĸ·": 2840,
      "ä¸»åĬ¨": 2841,
      "æĽ¿": 2842,
      "éĢĲæ¸Ĳ": 2843,
      "èĪĴ": 2844,
      "ç¬¬åĽĽ": 2845,
      "åĪºæ¿Ģ": 2846,
      "å¼ºåº¦": 2847,
      "å£®": 2848,
      "ä¼ĺåĮĸ": 2849,
      "è°·": 2850,
      "éĢĤåºĶ": 2851,
      "ä»ĸä»¬çļĦ": 2852,
      "çĻ£": 2853,
      "æīĭæľº": 2854,
      "æ¯ıä¸ª": 2855,
      "é¥Ń": 2856,
      "ä¼¦": 2857,
      "å½¢è±¡": 2858,
      "å¼ĥ": 2859,
      "çĻ«çĹ": 2860,
      "çĻ«çĹ«": 2861,
      "çļĦä½ľçĶ¨": 2862,
      "å¤º": 2863,
      "å®ĭ": 2864,
      "å¼Ł": 2865,
      "27": 2866,
      "ä¿Ĺ": 2867,
      "æĬµ": 2868,
      "åħįçĸ«": 2869,
      "ä¾ĭå¦Ĥ": 2870,
      "å¤ļä¸ª": 2871,
      "ç´«": 2872,
      "çĹħæĥħ": 2873,
      "çªģçł´": 2874,
      "èģĺ": 2875,
      "æľºåĻ¨": 2876,
      "ä»įçĦ¶": 2877,
      "å¼ķå¯¼": 2878,
      "æ¶īåıĬ": 2879,
      "ç¥Ŀ": 2880,
      "ä¼Ļ": 2881,
      "èĩªæĪĳ": 2882,
      "ä¹Łåı¯ä»¥": 2883,
      "æĥĬ": 2884,
      "æİĮæı¡": 2885,
      "èµĽåŃ£": 2886,
      "é¡¿": 2887,
      "æľīäºº": 2888,
      "åľ£": 2889,
      "è¿ŀç»Ń": 2890,
      "è¿Ļåı¥è¯Ŀ": 2891,
      "å¤įæĿĤ": 2892,
      "ä¸Ĭå¸Ĥ": 2893,
      "çīĽçļ®": 2894,
      "æģĴ": 2895,
      "å¤§åŀĭ": 2896,
      "æ§": 2897,
      "æ·»": 2898,
      "äººåı£": 2899,
      "éĥĳ": 2900,
      "æĬ¥éģĵ": 2901,
      "æĪĲåĳĺ": 2902,
      "ä¸ĭçļĦ": 2903,
      "å¤Ħäºİ": 2904,
      "è½´": 2905,
      "çĹħæ¯Ĵ": 2906,
      "å¡ĳæĸĻ": 2907,
      "æĥ³è¦ģ": 2908,
      "åı¯èĥ½ä¼ļ": 2909,
      "åĳĬè¯ī": 2910,
      "è¿ĺè¦ģ": 2911,
      "çļĦä¸»è¦ģ": 2912,
      "åºĦ": 2913,
      "ä¼Łå¤§": 2914,
      "çļĦå½±åĵį": 2915,
      "çªģåĩº": 2916,
      "æĺ¯ä»Ģä¹Ī": 2917,
      "è¿¹": 2918,
      "æ®ĭ": 2919,
      "åĵģè´¨": 2920,
      "æľ¬æ¬¡": 2921,
      "ç¤ºèĮĥ": 2922,
      "ä½ĵéªĮ": 2923,
      "ç²®": 2924,
      "å±ķç¤º": 2925,
      "åĩŃ": 2926,
      "æĬ½": 2927,
      "ä¸ºä»Ģä¹Ī": 2928,
      "ä¸»å¸Ń": 2929,
      "æµĻæ±Ł": 2930,
      "è´Ńä¹°": 2931,
      "éĢ²": 2932,
      "çļĦæľĢ": 2933,
      "é«ĺéĢŁ": 2934,
      "å·§": 2935,
      "è¯´æĺİ": 2936,
      "åĪ©äºİ": 2937,
      "åĮĸå·¥": 2938,
      "åĿļå®ļ": 2939,
      "éĤ£äºĽ": 2940,
      "åĪĢ": 2941,
      "æĹ¦": 2942,
      "æľīäºĨ": 2943,
      "æĪĲäºĨ": 2944,
      "çĶŁéķ¿": 2945,
      "å¸¸è§ģ": 2946,
      "æĭŁ": 2947,
      "è°ĭ": 2948,
      "åįĩçº§": 2949,
      "æī¿æĭħ": 2950,
      "éĶĭ": 2951,
      "çī¹åĪ«æĺ¯": 2952,
      "éĩıçļĦ": 2953,
      "ç£ģ": 2954,
      "çĽ¸æ¯Ķ": 2955,
      "è¯ģæĺİ": 2956,
      "æĭľ": 2957,
      "èĳ£äºĭ": 2958,
      "åĵ¥": 2959,
      "35": 2960,
      "çīĽçļ®çĻ£": 2961,
      "å§ĵ": 2962,
      "çıł": 2963,
      "æµ®": 2964,
      "çķ¶": 2965,
      "çĮª": 2966,
      "åıªèĥ½": 2967,
      "èħĶ": 2968,
      "èĴ¸": 2969,
      "æĬĳ": 2970,
      "æĿ°": 2971,
      "é©¾": 2972,
      "å®ŀåĬĽ": 2973,
      "çĶ¨çļĦ": 2974,
      "åľŁåľ°": 2975,
      "èĦ¸": 2976,
      "å¯¦": 2977,
      "ç»Łè®¡": 2978,
      "å¦»": 2979,
      "åĨħéĥ¨": 2980,
      "çĲĨæĥ³": 2981,
      "90": 2982,
      "å¹´åº¦": 2983,
      "çģ°": 2984,
      "æľ±": 2985,
      "éĥ¨ç½²": 2986,
      "æĮĳæĪĺ": 2987,
      "å£ģ": 2988,
      "çĶµæ±ł": 2989,
      "åķĨæłĩ": 2990,
      "å¹¿å·ŀ": 2991,
      "æ·±åĪ»": 2992,
      "å±ı": 2993,
      "åİ»å¹´": 2994,
      "èī¯å¥½": 2995,
      "å®ĩ": 2996,
      "åĩºçĶŁ": 2997,
      "è¿ħéĢŁ": 2998,
      "éĸĵ": 2999,
      "ç´łè´¨": 3000,
      "è»": 3001,
      "åıĬåħ¶": 3002,
      "å¹´è½»": 3003,
      "ä¸Ńå°ı": 3004,
      ")(": 3005,
      "æĻ¶": 3006,
      "èĻ«": 3007,
      "åįıè°ĥ": 3008,
      "çŃīçŃī": 3009,
      "ç§°ä¸º": 3010,
      "å±ħæ°ĳ": 3011,
      "æĸĩä»¶": 3012,
      "åĲ«æľī": 3013,
      "è¯Ńè¨Ģ": 3014,
      "æĪ´": 3015,
      "åħ§": 3016,
      "å½ĵåīį": 3017,
      "çĥ¯": 3018,
      "æĢĿèĢĥ": 3019,
      "å¾Ĳ": 3020,
      "å±¥": 3021,
      "èĤ¡ä»½": 3022,
      "éĸĭ": 3023,
      "æľīçĿĢ": 3024,
      "æİ¢ç´¢": 3025,
      "èĬĤèĥ½": 3026,
      "å²Ĺä½į": 3027,
      "åĽ½åĬ¡": 3028,
      "ä¸Ģä½ĵ": 3029,
      "èį·": 3030,
      "åľ°ä½į": 3031,
      "è®¯": 3032,
      "è´Ŀ": 3033,
      "ä¸īä¸ª": 3034,
      "åħĪçĶŁ": 3035,
      "è´¦": 3036,
      "éģŃ": 3037,
      "åİĤå®¶": 3038,
      "æ±¤": 3039,
      "æ·±åĮĸ": 3040,
      "å®¶éķ¿": 3041,
      "èĤ¾": 3042,
      "èĩªä¸»": 3043,
      "ç»ıçĲĨ": 3044,
      "æĹº": 3045,
      "ä¸¾åĬŀ": 3046,
      "è¿ĽæŃ¥": 3047,
      "è´Łè´£äºº": 3048,
      "æİ¨å¹¿": 3049,
      "æĦĪ": 3050,
      "ç¾Ĭ": 3051,
      "ä¸ŃåĽ½çī¹èī²ç¤¾ä¼ļä¸»ä¹ī": 3052,
      "çİ°å®ŀ": 3053,
      "æ³ķéĻ¢": 3054,
      "åĽĽå·Ŀ": 3055,
      "åĺī": 3056,
      "åĬ¨çī©": 3057,
      "ä¸»ä½ĵ": 3058,
      "å¾·åĽ½": 3059,
      "çģŃ": 3060,
      "éĽ»": 3061,
      "å°¤åħ¶æĺ¯": 3062,
      "è´¢æĶ¿": 3063,
      "æ¬²": 3064,
      "çĬ¯ç½ª": 3065,
      "åĪĨåŃĲ": 3066,
      "é¢ĨåħĪ": 3067,
      "å¿ł": 3068,
      "ä¸¹": 3069,
      "çĩ¥": 3070,
      "çļĦæĹ¶éĹ´": 3071,
      "æĺĮ": 3072,
      "éĺħ": 3073,
      "ä¸¾è¡Į": 3074,
      "å¾ªçİ¯": 3075,
      "åħ¬åı¸çļĦ": 3076,
      "åĲĽ": 3077,
      "ä¸Ģå¹´": 3078,
      "éĹľ": 3079,
      "æĩī": 3080,
      "å»ī": 3081,
      "è§Ĵåº¦": 3082,
      "æİ¥è§¦": 3083,
      "åħ¬å¼Ģ": 3084,
      "ä½¿åĳ½": 3085,
      "æ³ī": 3086,
      "ç¢į": 3087,
      "åĨłåĨĽ": 3088,
      "å¦Ĥä»Ĭ": 3089,
      "åĲĦåľ°": 3090,
      "å®ŀéªĮå®¤": 3091,
      "500": 3092,
      "çĶ¢": 3093,
      "ç±»åŀĭ": 3094,
      "é»ĺ": 3095,
      "æĶ¯ä»ĺ": 3096,
      "è¿½æ±Ĥ": 3097,
      "è·³": 3098,
      "è¯ķéªĮ": 3099,
      "æħİ": 3100,
      "åħ¨ä½ĵ": 3101,
      "æĿĨ": 3102,
      "èĢħçļĦ": 3103,
      "èĢĮè¨Ģ": 3104,
      "çĭ¬ç«ĭ": 3105,
      "ç»ıåİĨ": 3106,
      "æĢ»ç»ĵ": 3107,
      "äººå·¥": 3108,
      "ç½Ĺæĸ¯": 3109,
      "ç¨®": 3110,
      "å±ĳ": 3111,
      "ç»´çĶŁç´ł": 3112,
      "æ°¨": 3113,
      "çıį": 3114,
      "çļĦåŁºç¡Ģ": 3115,
      "è¿ĲçĶ¨": 3116,
      "åŃ¦æľ¯": 3117,
      "åĲ¸æĶ¶": 3118,
      "åŁºå±Ĥ": 3119,
      "åĽ½åĬ¡éĻ¢": 3120,
      "on": 3121,
      "å¼ºçļĦ": 3122,
      "æĮĤ": 3123,
      "ä¼łæĴŃ": 3124,
      "æ¯ıå¹´": 3125,
      "äºĭä»¶": 3126,
      "å²¸": 3127,
      "çļĦæ²»çĸĹ": 3128,
      "èĲ¥éĶĢ": 3129,
      "éĤĦ": 3130,
      "29": 3131,
      "ç»ĵæĿŁ": 3132,
      "æŁĶ": 3133,
      "å°±åı¯ä»¥": 3134,
      "è¿Ļä¸ªéĹ®é¢ĺ": 3135,
      "ä¹ĭéĹ´çļĦ": 3136,
      "åĿĢ": 3137,
      "è®²è¯Ŀ": 3138,
      "2016": 3139,
      "æĺ¯æĮĩ": 3140,
      "è®Ńç»ĥ": 3141,
      "äººå£«": 3142,
      "æ²³åįĹ": 3143,
      "æľ¬èº«": 3144,
      "å§Ĩ": 3145,
      "æ¬¢è¿İ": 3146,
      "æĥħç»ª": 3147,
      "èĢģå¹´": 3148,
      "å¹¿åĳĬ": 3149,
      "å®ı": 3150,
      "er": 3151,
      "æ¬§æ´²": 3152,
      "è®¾ç½®": 3153,
      "çĲĥåĳĺ": 3154,
      "åĲ¸å¼ķ": 3155,
      "åħ¬è·¯": 3156,
      "äºĭå®ŀ": 3157,
      "ç§¦": 3158,
      "éĿ¢çļĦ": 3159,
      "èµŀ": 3160,
      "å¤§åĬĽ": 3161,
      "åħ±äº§åħļ": 3162,
      "çĽ¸å½ĵ": 3163,
      "çĶŁæ´»ä¸Ń": 3164,
      "åį³ä½¿": 3165,
      "å¹³åĿĩ": 3166,
      "è±ª": 3167,
      "æľĢé«ĺ": 3168,
      "åį±å®³": 3169,
      "éĻ¶": 3170,
      "çŁ¥åĲį": 3171,
      "éĩįåºĨ": 3172,
      "æĹ¨": 3173,
      "èŀº": 3174,
      "éĿ¢ä¸´": 3175,
      "åĢ¼å¾Ĺ": 3176,
      "è¿ĳå¹´æĿ¥": 3177,
      "éħįåĲĪ": 3178,
      "äºĭæķħ": 3179,
      "é¼ĵåĬ±": 3180,
      "çĬ¶åĨµ": 3181,
      "åĽ´ç»ķ": 3182,
      "æĴĳ": 3183,
      "å¡«": 3184,
      "æ»¤": 3185,
      "æ³Į": 3186,
      "è¾ĳ": 3187,
      "ç»ĻäºĪ": 3188,
      "æµĭè¯ķ": 3189,
      "ä¼¯": 3190,
      "ç«¹": 3191,
      "æ±Łèĭı": 3192,
      "æĻĵ": 3193,
      "âĢĿâĢľ": 3194,
      "æį·": 3195,
      "æĭĴ": 3196,
      "è¶ĭåĬ¿": 3197,
      "äºĭæĥħ": 3198,
      "çļĦäº§åĵģ": 3199,
      "èİ±": 3200,
      "è¿«": 3201,
      "ç±į": 3202,
      "åĵ²": 3203,
      "çĽ¸åºĶ": 3204,
      "å¤©çĦ¶": 3205,
      "å¤ļå°ĳ": 3206,
      "å¥ī": 3207,
      "ä¸»æĮģ": 3208,
      "ä»¤äºº": 3209,
      "çº¤ç»´": 3210,
      "éĻ·": 3211,
      "æ±¡æ°´": 3212,
      "èµı": 3213,
      "æĬ¢": 3214,
      "åı¬å¼Ģ": 3215,
      "é£ŁçĶ¨": 3216,
      "ä¸°å¯ĮçļĦ": 3217,
      "æ¡ĥ": 3218,
      "èĤ¯å®ļ": 3219,
      "åĩĨç¡®": 3220,
      "æ³µ": 3221,
      "æĹĭ": 3222,
      "2015": 3223,
      "åįıè®®": 3224,
      "æĳĨ": 3225,
      "ä¹łè¿ĳå¹³æĢ»ä¹¦è®°": 3226,
      "å¾Īå¤§": 3227,
      "æŃ¦æ±ī": 3228,
      "å®ŀè¡Į": 3229,
      "æī¾åĪ°": 3230,
      "198": 3231,
      "æľºçļĦ": 3232,
      "è§Ĥä¼Ĺ": 3233,
      "æľ¬ç§ĳ": 3234,
      "å¤ªéĺ³": 3235,
      "èĭ±åĽ½": 3236,
      "æ¦ľ": 3237,
      "éº¦": 3238,
      "åŃĲçļĦ": 3239,
      "æ¯ıä¸Ģ": 3240,
      "æİĴåĲį": 3241,
      "å°ĳå¹´": 3242,
      "åĽ¢ç»ĵ": 3243,
      "æļĹ": 3244,
      "è¾ī": 3245,
      "æĭĶ": 3246,
      "æīĭæ®µ": 3247,
      "è¡Ģç®¡": 3248,
      "é¢Ĺ": 3249,
      "æıı": 3250,
      "åĭĴ": 3251,
      "è½¦è¾Ĩ": 3252,
      "åĲ«éĩı": 3253,
      "åĿ¦": 3254,
      "ä¸įèī¯": 3255,
      "åħĥç´ł": 3256,
      "çļĦå¿ĥ": 3257,
      "å±ķå¼Ģ": 3258,
      "è¦ĨçĽĸ": 3259,
      "å©´åĦ¿": 3260,
      "å¸ĥå±Ģ": 3261,
      "èĩªæ²»": 3262,
      "åħĪåĲİ": 3263,
      "éħĴåºĹ": 3264,
      "è¿Ķ": 3265,
      "åĬłå¤§": 3266,
      "æī£": 3267,
      "é«ĺæķĪ": 3268,
      "æĬ¤çĲĨ": 3269,
      "é¢ľèī²": 3270,
      "è¹": 3271,
      "åĿĽ": 3272,
      "åĹ": 3273,
      "æ´ŀ": 3274,
      "éĢļçŁ¥": 3275,
      "çĵľ": 3276,
      "é¡ºåĪ©": 3277,
      "éĽķ": 3278,
      "éĶĪ": 3279,
      "æ¯Ķä¾ĭ": 3280,
      "è®¤è¯ģ": 3281,
      "çĽ¸äºĴ": 3282,
      "æ°ĳä¸»": 3283,
      "éŀ": 3284,
      "éĢĴ": 3285,
      "èģĶèµĽ": 3286,
      "æĩĤ": 3287,
      "è¯¦ç»Ĩ": 3288,
      "é©±": 3289,
      "èĪªç©º": 3290,
      "å·¥åħ·": 3291,
      "çº¹": 3292,
      "ä¿Ħç½Ĺæĸ¯": 3293,
      "å¹³æĸ¹ç±³": 3294,
      "åĪ¶åĵģ": 3295,
      "çļĦæĸ¹å¼ı": 3296,
      "çĶµåĬĽ": 3297,
      "çļĦä¼ģä¸ļ": 3298,
      "æĭ¼": 3299,
      "èĳĹåĲį": 3300,
      "æ³ķè§Ħ": 3301,
      "çļĦåľ°æĸ¹": 3302,
      "æ¨ª": 3303,
      "éĩįæĸ°": 3304,
      "å¿½": 3305,
      "è½¨": 3306,
      "å¹´é¾Ħ": 3307,
      ",ãĢĬ": 3308,
      "å¤ļå¹´": 3309,
      "ç¥ŀç»ı": 3310,
      "äººçĶŁ": 3311,
      "âĢĻ": 3312,
      "çľŁçļĦ": 3313,
      "æ¸ł": 3314,
      "æľĢå¤§": 3315,
      "en": 3316,
      "ä¼¸": 3317,
      "æĪĲå°±": 3318,
      "è¯ģä¹¦": 3319,
      "æŁ±": 3320,
      "å¯¿åĳ½": 3321,
      "æĸ°åŀĭ": 3322,
      "ç§»åĬ¨": 3323,
      "çŃīæĸ¹éĿ¢": 3324,
      "çį": 3325,
      "èķ": 3326,
      "çĻ»è®°": 3327,
      "åıĺå¾Ĺ": 3328,
      "èº«ä»½": 3329,
      "åįļå£«": 3330,
      "çĵ¶": 3331,
      "åį±éĻ©": 3332,
      "è¯Ħä¼°": 3333,
      "èĶ¬": 3334,
      "éļĨ": 3335,
      "åĪ«äºº": 3336,
      "çº¢èī²": 3337,
      "ä¸Ĭåįĩ": 3338,
      "é©¶": 3339,
      "å±ķçİ°": 3340,
      "éģĵå¾·": 3341,
      "ä¹¡æĿĳ": 3342,
      "çĻ½æĸĳ": 3343,
      "èįĲ": 3344,
      "å°ĩ": 3345,
      "è¯ķç®¡": 3346,
      "åĿ¡": 3347,
      "ä¼¼ä¹İ": 3348,
      "æŀĦæĪĲ": 3349,
      "çİ¯èĬĤ": 3350,
      "çĽĳæµĭ": 3351,
      "åıĳçĹħ": 3352,
      "ä½ľåĩº": 3353,
      "çľł": 3354,
      "æ³¨éĩį": 3355,
      "ä¼ĺè´¨": 3356,
      "è½¬åŀĭ": 3357,
      "æĪĲåĪĨ": 3358,
      "31": 3359,
      "è£ħå¤ĩ": 3360,
      "ãĢĤ(": 3361,
      "äººåľ¨": 3362,
      "åķĨåĬ¡": 3363,
      "éĩĮçļĦ": 3364,
      "é£İæł¼": 3365,
      "ä¸ĵä¸ļçļĦ": 3366,
      "å¤ļæ¬¡": 3367,
      "äºķ": 3368,
      "æ¶Īæģ¯": 3369,
      "åĩī": 3370,
      "è¿Ļæ¬¡": 3371,
      "ä¸ĭéĿ¢": 3372,
      "æ¸ħæ¥ļ": 3373,
      "åľ¨ä¸ŃåĽ½": 3374,
      "æĽ´æĺ¯": 3375,
      "ä¸ĢçĤ¹": 3376,
      "çĸ¼": 3377,
      "çĤī": 3378,
      "æĽ´å¤ļçļĦ": 3379,
      "è¿Ļä¹Ī": 3380,
      "çĸĨ": 3381,
      "æľĪä»½": 3382,
      "ä¿Ŀæ¸©": 3383,
      "å¤§å¤§": 3384,
      "åŀĥ": 3385,
      "åŃ¦ä¼ļ": 3386,
      "åľ¾": 3387,
      "åº¦çļĦ": 3388,
      "åĪĩå®ŀ": 3389,
      "ä¸Ĭè¿°": 3390,
      "åĬŀçĲĨ": 3391,
      "æ²ŁéĢļ": 3392,
      "æıĲä¾ĽäºĨ": 3393,
      "çĶľ": 3394,
      "éĻĲåĪ¶": 3395,
      "ä¸Ģæĺ¯": 3396,
      "å®¾": 3397,
      "éĵģè·¯": 3398,
      "æĻĭ": 3399,
      "è·Ŀç¦»": 3400,
      "èħĲèļĢ": 3401,
      "ä¼ı": 3402,
      "æĶ¾åľ¨": 3403,
      "ç¡ķ": 3404,
      "èī°": 3405,
      "éļ¾ä»¥": 3406,
      "åŀĥåľ¾": 3407,
      "æ´ª": 3408,
      "åı¯éĿł": 3409,
      "æĿľ": 3410,
      "é«ĺçŃī": 3411,
      "æļĤ": 3412,
      "å·ŀå¸Ĥ": 3413,
      "å¿Ĩ": 3414,
      "çĶµåĬ¨": 3415,
      "æĪĲçĨŁ": 3416,
      "æ²Ĵ": 3417,
      "ä¼ļä¸Ĭ": 3418,
      "æĪĳåĢĳ": 3419,
      "åŃĲå®«": 3420,
      "è®°å½ķ": 3421,
      "çķħ": 3422,
      "âĢĺ": 3423,
      "æĪĲéĥ½": 3424,
      "åħ¬å®ī": 3425,
      "ä¹ĭå¤ĸ": 3426,
      "æĺ¯ä¸į": 3427,
      "éĨĩ": 3428,
      "èĻİ": 3429,
      "çĵ·": 3430,
      "å®¿": 3431,
      "åıįæĺł": 3432,
      "æ¼ı": 3433,
      "åĲĦçº§": 3434,
      "ä»ĸäºº": 3435,
      "ä¸ĵåĪ©": 3436,
      "åĩºçīĪ": 3437,
      "äº«åıĹ": 3438,
      "æĬĬæı¡": 3439,
      "éĢĲæŃ¥": 3440,
      "è¶³çĲĥ": 3441,
      "åĽ½æľī": 3442,
      "æģĭ": 3443,
      "è´¢åĬ¡": 3444,
      "æĢ»ä½ĵ": 3445,
      "è¡°": 3446,
      "åĩłä¹İ": 3447,
      "è£ħé¥°": 3448,
      "çļĦåĲĮæĹ¶": 3449,
      "çļĦå¥½": 3450,
      "ç¡ħ": 3451,
      "ç¸": 3452,
      "çļĦçĶŁæ´»": 3453,
      "å¤§åĪ©": 3454,
      "è¿ģ": 3455,
      "éĻ¢æł¡": 3456,
      "åĵ¡": 3457,
      "æī¹åĩĨ": 3458,
      "æĶ¯æĴĳ": 3459,
      "åĨ³çŃĸ": 3460,
      "36": 3461,
      "å¾½": 3462,
      "å»ºæĪĲ": 3463,
      "2000": 3464,
      "èĳ¡": 3465,
      "æĶ¹éĢł": 3466,
      "çļĦè¦ģæ±Ĥ": 3467,
      "é©»": 3468,
      "æĢģåº¦": 3469,
      "ä»ªåĻ¨": 3470,
      "å§Ķä¼ļ": 3471,
      "éĹ²": 3472,
      "æĦŁåĪ°": 3473,
      "åĽĽä¸ª": 3474,
      "æĮĩæłĩ": 3475,
      "èĥĨ": 3476,
      "çŁ³æ²¹": 3477,
      "åĢ¾": 3478,
      "ä¸»è¦ģæĺ¯": 3479,
      "ä¸Ńåįİæ°ĳæĹı": 3480,
      "æľŁçļĦ": 3481,
      "çī©çļĦ": 3482,
      "é«ĺçº§": 3483,
      "èµĸ": 3484,
      "åľ°äº§": 3485,
      "åĪĨæ³Į": 3486,
      "æ¹ĸåįĹ": 3487,
      "çľģçº§": 3488,
      "åł´": 3489,
      "è¿ŀæİ¥": 3490,
      "éĺ²æİ§": 3491,
      "é»ŀ": 3492,
      "è®¡ç®Ĺæľº": 3493,
      "ç¼ºä¹ı": 3494,
      "ç¢İ": 3495,
      "åħ«åŃĹ": 3496,
      "å°¾": 3497,
      "å¿ĥçļĦ": 3498,
      "è°Ĳ": 3499,
      "é©¬åħĭ": 3500,
      "é¢Ī": 3501,
      "è®©äºº": 3502,
      "ç¼´": 3503,
      "è²Į": 3504,
      "äºĮæĺ¯": 3505,
      "æ°Ľ": 3506,
      "è¡¨æĺİ": 3507,
      "ä¸»ç®¡": 3508,
      "å¾Ĵ": 3509,
      "åİŁæĸĻ": 3510,
      "å¼ķé¢Ĩ": 3511,
      "ãĢĭãĢĤ": 3512,
      "åĲĦä¸ª": 3513,
      "ä¼ļæľī": 3514,
      "æ»´": 3515,
      "æģĲ": 3516,
      "çĻ¾å¹´": 3517,
      "çĦĬ": 3518,
      "äºİæĺ¯": 3519,
      "å¤§å¤ļæķ°": 3520,
      "ä½¿å¾Ĺ": 3521,
      "åįģäºĮ": 3522,
      "å®¤åĨħ": 3523,
      "ä¾Ŀæį®": 3524,
      "åŃ¦çĶŁçļĦ": 3525,
      "èĥĮæĻ¯": 3526,
      "åħ¬å¸ĥ": 3527,
      "åįģä¹Ŀ": 3528,
      "å¹²çĩ¥": 3529,
      "çļĦäºĭæĥħ": 3530,
      "é¼»": 3531,
      "å¼ķåıĳ": 3532,
      "æ¶Īéĺ²": 3533,
      "åľ¨äºİ": 3534,
      "å°º": 3535,
      "è°±": 3536,
      "åħ±äº«": 3537,
      "è¡¨è¾¾": 3538,
      "éĥ½ä¸į": 3539,
      "ä¸ĢæĹ¦": 3540,
      "åģļåĩº": 3541,
      "åĨ³èµĽ": 3542,
      "åĲİæĿ¥": 3543,
      "éĢĨ": 3544,
      "45": 3545,
      "å¹´ä»£": 3546,
      "è®¾ç«ĭ": 3547,
      "çĹħäºº": 3548,
      "å¤§éĥ¨åĪĨ": 3549,
      "åĽºå®ļ": 3550,
      "æĤ£èĢħçļĦ": 3551,
      "èµ¶": 3552,
      "æīĢè°ĵ": 3553,
      "æľĢå¥½": 3554,
      "ä¸Ģä¸ªäºº": 3555,
      "èį¯åĵģ": 3556,
      "æķĪçĽĬ": 3557,
      "åĲĪæł¼": 3558,
      "åĭĻ": 3559,
      "çī¹å¾ģ": 3560,
      "çĤŃ": 3561,
      "è½¬åĮĸ": 3562,
      "æĦıåĳ³": 3563,
      "ä¸ĸçķĮæĿ¯": 3564,
      "è§Ĵèī²": 3565,
      "æłĩå¿Ĺ": 3566,
      "åı¯æĺ¯": 3567,
      "æ¸ħæ´ģ": 3568,
      "æĦŁæĥħ": 3569,
      "æĨ": 3570,
      "å§Ĳ": 3571,
      "éģĩåĪ°": 3572,
      "ä¹ĥ": 3573,
      "åĪ©æ¶¦": 3574,
      "åĪĽä½ľ": 3575,
      "è·ĥ": 3576,
      "è¿Ŀæ³ķ": 3577,
      "åĬ²": 3578,
      "æ¡Īä»¶": 3579,
      "å°½ç®¡": 3580,
      "åĨĴ": 3581,
      "å²©": 3582,
      "å£¤": 3583,
      "å¤©æ´¥": 3584,
      "åĲĮæł·": 3585,
      "åĵģç§į": 3586,
      "ä½©": 3587,
      "çĭ¬çī¹": 3588,
      "æŃ»äº¡": 3589,
      "çļĦä¸Ģä¸ª": 3590,
      "æµĭéĩı": 3591,
      "å¾Īå¤ļäºº": 3592,
      "åĲ¯åĬ¨": 3593,
      "ä»ĵ": 3594,
      "åľºæīĢ": 3595,
      "è¦ģæ³¨æĦı": 3596,
      "åĬĽåº¦": 3597,
      "åĬŀåŃ¦": 3598,
      "çļĦåİŁåĽł": 3599,
      "æĺ¾èĳĹ": 3600,
      "äº§æĿĥ": 3601,
      "æ¶ĤæĸĻ": 3602,
      "300": 3603,
      "ç»´ä¿®": 3604,
      "?âĢĿ": 3605,
      "éħ¯": 3606,
      "å°½éĩı": 3607,
      "æīĢåľ¨": 3608,
      "å°ıç»Ħ": 3609,
      "ä¹Łå°±æĺ¯": 3610,
      "çĪ¸": 3611,
      "åĽĬ": 3612,
      "çĪ±æĥħ": 3613,
      "è°ĥèĬĤ": 3614,
      "æ°£": 3615,
      "æłı": 3616,
      "è¿Ľåı£": 3617,
      "çļĦä¸Ģç§į": 3618,
      "çļĦä¸į": 3619,
      "éĻķ": 3620,
      "æĸĩç«ł": 3621,
      "åĳ¼åĲ¸": 3622,
      "æĬ±": 3623,
      "æĢĿç»´": 3624,
      "æĽ´å¥½çļĦ": 3625,
      "ä¸īå¹´": 3626,
      "å¹³è¡¡": 3627,
      "èĲĦ": 3628,
      "çłĤ": 3629,
      "æİĴæĶ¾": 3630,
      "æĸ°æĬĢæľ¯": 3631,
      "å¨±ä¹Ĳ": 3632,
      "åĬŀåħ¬å®¤": 3633,
      "æ²³åĮĹ": 3634,
      "ä¸Ģå®¶": 3635,
      "ä¸ŃåĽ½åħ±äº§åħļ": 3636,
      "åĬŁæķĪ": 3637,
      "ç»ĺ": 3638,
      "èĥ¸": 3639,
      "èĪį": 3640,
      "æİ¨èįĲ": 3641,
      "è£ħç½®": 3642,
      "èı²": 3643,
      "åįĵ": 3644,
      "å¿Ļ": 3645,
      "åºĶæĢ¥": 3646,
      "é¦ĸæ¬¡": 3647,
      "æµģç¨ĭ": 3648,
      "è³ª": 3649,
      "è¯±": 3650,
      "ä½łä»¬": 3651,
      "åĩłä¸ª": 3652,
      "è¾£": 3653,
      "ç®¡éģĵ": 3654,
      "èĤĥ": 3655,
      "å¯¹æĸ¹": 3656,
      "æ¼Ĩ": 3657,
      "èĤª": 3658,
      "2014": 3659,
      "è§Ĥå¯Ł": 3660,
      "åĪ¶éĢłä¸ļ": 3661,
      "å·¡": 3662,
      "éĢĤå½ĵ": 3663,
      "éĤĢ": 3664,
      "èĶ¬èıľ": 3665,
      "çļĦæĸ¹æ³ķ": 3666,
      "èĦĤèĤª": 3667,
      "åħ¬åĽŃ": 3668,
      "çĭĹ": 3669,
      "éĶ»": 3670,
      "å¿§": 3671,
      "è¡¥åħħ": 3672,
      "æŃ£æĺ¯": 3673,
      "æł¡åĽŃ": 3674,
      "å°ĸ": 3675,
      "å¯¹å¤ĸ": 3676,
      "ä¸ĩäºº": 3677,
      "åŁ¹èĤ²": 3678,
      "èŀįèµĦ": 3679,
      "è®¨è®º": 3680,
      "ç¾İæľ¯": 3681,
      "å½¢åĬ¿": 3682,
      "æī°": 3683,
      "å¿ĹæĦ¿": 3684,
      "åĨ»": 3685,
      "åĨľæ°ĳ": 3686,
      "æĶ¯éĥ¨": 3687,
      "è¯ĬæĸŃ": 3688,
      "åıĳçĶµ": 3689,
      "æ©¡": 3690,
      "çĽ¸åĲĮ": 3691,
      "å¥¹çļĦ": 3692,
      "ç¾İä¸½": 3693,
      "åıĳè¡¨": 3694,
      "åģ¶": 3695,
      "ä¿¡çĶ¨": 3696,
      "çľŁå®ŀ": 3697,
      "èĳ¡èĲĦ": 3698,
      "æ³Ħ": 3699,
      "æįŁå¤±": 3700,
      "éĥģ": 3701,
      "åĶ¯ä¸Ģ": 3702,
      "æĸĩåŃ¦": 3703,
      "éĽĨä½ĵ": 3704,
      "è¨Ń": 3705,
      "æĤŁ": 3706,
      "ä¼¤å®³": 3707,
      "ä»£çĲĨ": 3708,
      "ç¢±": 3709,
      "å®Įæķ´": 3710,
      "çļĦæ°´": 3711,
      "èĥľåĪ©": 3712,
      "è®ĵ": 3713,
      "æ¸ħæ´Ĺ": 3714,
      "èĩ´åĬĽ": 3715,
      "åħħæ»¡": 3716,
      "æĲº": 3717,
      "å¾Īå¤§çļĦ": 3718,
      "çļĦæĬĢæľ¯": 3719,
      "è·Į": 3720,
      "èĿ": 3721,
      "æĤ²": 3722,
      "å¦Ĥæŀľä½ł": 3723,
      "å¯º": 3724,
      "èħ¾": 3725,
      "é¬": 3726,
      "ä¸Ģæµģ": 3727,
      "æĻ¨": 3728,
      "åıĳèĤ²": 3729,
      "ä½ĵåĪ¶": 3730,
      "å®ĺæĸ¹": 3731,
      "ä¸Ļ": 3732,
      "åĴĮåĽ½": 3733,
      "å°±èĥ½": 3734,
      "èģĮè´£": 3735,
      "åĪĬ": 3736,
      "æĸ°èĥ½æºĲ": 3737,
      "å¾Īå¥½çļĦ": 3738,
      "æĢ»æĺ¯": 3739,
      "æķĮ": 3740,
      "ä¸Ģèĩ´": 3741,
      "èµ·åĪ°": 3742,
      "çĥ¦": 3743,
      "éĵ¸": 3744,
      "çĻ¾åĪĨ": 3745,
      "å®Ŀå®Ŀ": 3746,
      "è¾½": 3747,
      "æĻ®éģį": 3748,
      "åħ´è¶£": 3749,
      "äº¿ç¾İåħĥ": 3750,
      "æª": 3751,
      "åľ¨çº¿": 3752,
      "æıĲåĪ°": 3753,
      "æĵ¦": 3754,
      "çĶ·æĢ§": 3755,
      "ä»¿": 3756,
      "å¿Į": 3757,
      "å½¼": 3758,
      "ç¬¬äºĶ": 3759,
      "æ´»æĢ§": 3760,
      "åį³åı¯": 3761,
      "äºĨä¸Ģä¸ª": 3762,
      "æ¨£": 3763,
      "æ¸łéģĵ": 3764,
      "åĪ°åºķ": 3765,
      "æ¸Ĺ": 3766,
      "å±Ĥæ¬¡": 3767,
      "åĩ¯": 3768,
      "éĤ®": 3769,
      "ä¿¡å¿ĥ": 3770,
      "å¸¦çĿĢ": 3771,
      "çļĦçĥŃ": 3772,
      "å¾ŀ": 3773,
      "äºĭé¡¹": 3774,
      "éĵº": 3775,
      "é©¬åħĭæĢĿ": 3776,
      "å½¹": 3777,
      "ä¼ļè®¡": 3778,
      "éĥ½åľ¨": 3779,
      "è´·æ¬¾": 3780,
      "åĲĪéĩĳ": 3781,
      "çļĦåīį": 3782,
      "çģĮ": 3783,
      "éĶģ": 3784,
      "é«ĺæ¸©": 3785,
      "å´ĩ": 3786,
      "ä¸Ģè·¯": 3787,
      "äººæ°ĳæĶ¿åºľ": 3788,
      "ç¡«": 3789,
      "åįĢ": 3790,
      "çĤ¸": 3791,
      "ä¸¤ç§į": 3792,
      "çĿĽ": 3793,
      "ä¸ĢåĲį": 3794,
      "è¯ĳ": 3795,
      "éĹ®é¢ĺçļĦ": 3796,
      "çī©çĲĨ": 3797,
      "æ»¡æĦı": 3798,
      "åħļä¸Ńå¤®": 3799,
      "ä½ľä¸ļ": 3800,
      "çĸı": 3801,
      "èĩ³ä»Ĭ": 3802,
      "å¦Īå¦Ī": 3803,
      "ç¾İçļĦ": 3804,
      "æĥħåĨµä¸ĭ": 3805,
      "ä¹Łèĥ½": 3806,
      "åĪĨå¸ĥ": 3807,
      "æ¬£": 3808,
      "ä¸Ĭä¸ĭ": 3809,
      "åĿļåĨ³": 3810,
      "ä¾ĿçĦ¶": 3811,
      "æī«": 3812,
      "çļĨ": 3813,
      "çļĦæĥħåĨµä¸ĭ": 3814,
      "ç²Ĺ": 3815,
      "æĦŁåıĹ": 3816,
      "ä¸¦": 3817,
      "æľīåĪ©äºİ": 3818,
      "äººçī©": 3819,
      "å®ļæľŁ": 3820,
      "å¹³æĹ¶": 3821,
      "æ±Ĺ": 3822,
      "è§Ħå¾ĭ": 3823,
      "å¹¶ä¸įæĺ¯": 3824,
      "ä»Ļ": 3825,
      "éĢĥ": 3826,
      "åľ¨è¿Ļ": 3827,
      "åħ»èĢģ": 3828,
      "æ¹ĸåĮĹ": 3829,
      "è¾ŀ": 3830,
      "ä¿¡æģ¯åĮĸ": 3831,
      "é»ĳèī²": 3832,
      "ä¸ĵéĹ¨": 3833,
      "åľ¨ä¸Ģèµ·": 3834,
      "æ²Ī": 3835,
      "ä¼Ĺå¤ļ": 3836,
      "ç¼Ŀ": 3837,
      "éĤ¦": 3838,
      "æĲľ": 3839,
      "æľīå¾Īå¤ļ": 3840,
      "éĥŃ": 3841,
      "éĵ¶å±ĳ": 3842,
      "è³ĩ": 3843,
      "åĳĪçİ°": 3844,
      "éĢĤçĶ¨äºİ": 3845,
      "éħįå¥Ĺ": 3846,
      "ä¸ĢæĿ¡": 3847,
      "åıĳä½ľ": 3848,
      "éĺĶ": 3849,
      "å°±è¦ģ": 3850,
      "æĮĸ": 3851,
      "çłĸ": 3852,
      "äººæ°ĳå¸ģ": 3853,
      "è¿Ī": 3854,
      "é¢Ħè®¡": 3855,
      "é«ĺè´¨éĩıåıĳå±ķ": 3856,
      "éĵ¶å±ĳçĹħ": 3857,
      "æ°¯": 3858,
      "çĽ¾": 3859,
      "æľĢä½³": 3860,
      "æ¢¦è§ģ": 3861,
      "éĩįçļĦ": 3862,
      "èĸª": 3863,
      "èµĶ": 3864,
      "çĻ½çĻľé£İçļĦ": 3865,
      "Ġ(": 3866,
      "è¢ĭ": 3867,
      "éĺĢ": 3868,
      "æĻ¯åĮº": 3869,
      "å®ħ": 3870,
      "å¾Īéļ¾": 3871,
      "è¿ĺåı¯ä»¥": 3872,
      "å¤Ħç½ļ": 3873,
      "è¡Ģæ¶²": 3874,
      "æĪªèĩ³": 3875,
      "æ°Ķä½ĵ": 3876,
      "çºµ": 3877,
      "æĸ°åĨł": 3878,
      "èĥĢ": 3879,
      "æĭħä»»": 3880,
      "ä¿Ŀåģ¥": 3881,
      "çŃīå¥ĸ": 3882,
      "è¯ģåĪ¸": 3883,
      "äº©": 3884,
      "å¼Ĥå¸¸": 3885,
      "æĭĴç»Ŀ": 3886,
      "å¿«ä¹Ĳ": 3887,
      "å¯¸": 3888,
      "åħ¨çľģ": 3889,
      "ä»¥åīį": 3890,
      "å¸ĤåľºçļĦ": 3891,
      "å¯¹è±¡": 3892,
      "æ³ķåĽ½": 3893,
      "æľĢè¿ĳ": 3894,
      "çºł": 3895,
      "ä¸ĵé¡¹": 3896,
      "çīµ": 3897,
      "1000": 3898,
      "éĶ¦": 3899,
      "ä¹ĭä¸Ń": 3900,
      "éĥ¨ä½į": 3901,
      "åįĹäº¬": 3902,
      "éĻµ": 3903,
      "å°ıçļĦ": 3904,
      "æŀĿ": 3905,
      "çłĶç©¶çĶŁ": 3906,
      "åŃ¦ä½į": 3907,
      "çł´åĿı": 3908,
      "åİŁçĲĨ": 3909,
      "å®¶çļĦ": 3910,
      "å·¥åİĤ": 3911,
      "è¡Įä¸ļçļĦ": 3912,
      "ç¦»å¼Ģ": 3913,
      "åĪĽå»º": 3914,
      "æľīåı¯èĥ½": 3915,
      "ä¸Ģåı¥": 3916,
      "åºĶå¯¹": 3917,
      "åŃ¦åİĨ": 3918,
      "èħ¿": 3919,
      "åŁĥ": 3920,
      "åľ¨æŃ¤": 3921,
      "æĦıæĢĿ": 3922,
      "æ£ĢéªĮ": 3923,
      "èµĭ": 3924,
      "è¯´éģĵ": 3925,
      "å®ļä½į": 3926,
      "æ·»åĬł": 3927,
      "åĲĬ": 3928,
      "è¯ļä¿¡": 3929,
      "åħįè´¹": 3930,
      "èħ°": 3931,
      "åľŁå£¤": 3932,
      "æľºåľº": 3933,
      "å®ĺç½ĳ": 3934,
      "æ¯įäº²": 3935,
      "åĳ¨æľŁ": 3936,
      "éŁ©åĽ½": 3937,
      "éĺ²æ²»": 3938,
      "ç§Ĵ": 3939,
      "èĩªæ²»åĮº": 3940,
      "ãĢĭãĢĬ": 3941,
      "è§£éĩĬ": 3942,
      "åħħåĪĨåıĳæĮ¥": 3943,
      "!âĢĿ": 3944,
      "ä¼ĺçĤ¹": 3945,
      "ç¥¥": 3946,
      "å°Ŀ": 3947,
      "è¨Ī": 3948,
      "è¸ı": 3949,
      "åįģå¹´": 3950,
      "æµĨ": 3951,
      "æ»ĭ": 3952,
      "è¾ĸ": 3953,
      "æĿŃ": 3954,
      "æĥľ": 3955,
      "å«Į": 3956,
      "è½¬åıĺ": 3957,
      "å·¥åķĨ": 3958,
      "çĶµè¯Ŀ": 3959,
      "éļľç¢į": 3960,
      "åī²": 3961,
      "ä¼łæī¿": 3962,
      "äººå¤§": 3963,
      "ä¹Łè¦ģ": 3964,
      "ä¸įåĨį": 3965,
      "åĴĮè°Ĳ": 3966,
      "èĻķ": 3967,
      "éĴĻ": 3968,
      "åĩĢåĮĸ": 3969,
      "æĺ¯ä¸ŃåĽ½": 3970,
      "åģ¥åħ¨": 3971,
      "æ¿Ģç´ł": 3972,
      "äºĳåįĹ": 3973,
      "éĥ¨ä»¶": 3974,
      "ä¸ĬäºĨ": 3975,
      "ä¸įå¥½": 3976,
      "èĬĤçĽ®": 3977,
      "éļıåĲİ": 3978,
      "è¾°": 3979,
      "åĽ½å®¶çº§": 3980,
      "èĩªè§ī": 3981,
      "é³": 3982,
      "æ¶ĪåĮĸ": 3983,
      "æ¼Ķåĳĺ": 3984,
      "åķĬ": 3985,
      "çľ¼çĿĽ": 3986,
      "å°±åĥı": 3987,
      "ä¸įç®¡": 3988,
      "ç³»ç»ŁçļĦ": 3989,
      "å¼ĺ": 3990,
      "åĪĨç±»": 3991,
      "å¤©ä¸ĭ": 3992,
      "å¥³äºº": 3993,
      "åĬłä¸Ĭ": 3994,
      "æĪĺäºī": 3995,
      "çħ®": 3996,
      "38": 3997,
      "æ°¸è¿ľ": 3998,
      "å±¥è¡Į": 3999,
      "åºĶçĶ¨äºİ": 4000,
      "çĪ¶äº²": 4001,
      "åŁºäºİ": 4002,
      "æĹ¶åĪ»": 4003,
      "å¿į": 4004,
      "ç§ī": 4005,
      "åĽŀåºĶ": 4006,
      "èĢĥæł¸": 4007,
      "æĺ¯çĶ±": 4008,
      "2013": 4009,
      "çĿĢåĬĽ": 4010,
      "çĽĨ": 4011,
      "å¾Īå¥½": 4012,
      "å§ľ": 4013,
      "å¸¦é¢Ĩ": 4014,
      "ä¸Ńåħ±": 4015,
      "æĹģ": 4016,
      "é½¿": 4017,
      "è§ĦåĪĻ": 4018,
      "å®£å¸ĥ": 4019,
      "ç¢ĳ": 4020,
      "èī¾": 4021,
      "èĩŃ": 4022,
      "æĸĩåŃĹ": 4023,
      "èĤ¿çĺ¤": 4024,
      "ç§įæ¤į": 4025,
      "èĢģäºº": 4026,
      "çĻ½èī²": 4027,
      "åĽŀæĶ¶": 4028,
      "åĮĢ": 4029,
      "ãĢĤãĢĬ": 4030,
      "èĴĤ": 4031,
      "æĦıåĳ³çĿĢ": 4032,
      "æķ¸": 4033,
      "çļĦåİĨåı²": 4034,
      "éĩĩè´Ń": 4035,
      "åįĬå¹´": 4036,
      "ç´¯è®¡": 4037,
      "æµģåĬ¨": 4038,
      "è¾ĥå¤§": 4039,
      "åĴĮç¤¾ä¼ļ": 4040,
      "æĹ¶çļĦ": 4041,
      "è°¨": 4042,
      "ç«ĭåį³": 4043,
      "å¤±åİ»": 4044,
      "éĿĴæĺ¥": 4045,
      "æĤ¬": 4046,
      "å·¥ä½ľäººåĳĺ": 4047,
      "çİ°æľī": 4048,
      "è¾ĥä¸º": 4049,
      "å·¥èµĦ": 4050,
      "è¡ĮçļĦ": 4051,
      "èĩ´åĬĽäºİ": 4052,
      "æ··åĲĪ": 4053,
      "éªĹ": 4054,
      "ä¼ĺèī¯": 4055,
      "----": 4056,
      "å¥ı": 4057,
      "èĥ½éĩı": 4058,
      "ä½ıæĪ¿": 4059,
      "æįŁå®³": 4060,
      "éº¼": 4061,
      "å²ģçļĦ": 4062,
      "æĲ¬": 4063,
      "è¯ķç®¡å©´åĦ¿": 4064,
      "æľĢå¥½çļĦ": 4065,
      "æĭĽçĶŁ": 4066,
      "%;": 4067,
      "è¡Ģåİĭ": 4068,
      "æĽ´ä¸º": 4069,
      "è®¾å¤ĩçļĦ": 4070,
      "é«ĺç«¯": 4071,
      "é¸Ł": 4072,
      "æ·±åº¦": 4073,
      "éĺ³åħī": 4074,
      "æĹ©æľŁ": 4075,
      "è»Ĭ": 4076,
      "éĺħè¯»": 4077,
      "åĻ¨çļĦ": 4078,
      "åįģåĽĽ": 4079,
      "åĳ¨åĽ´": 4080,
      "å®¡æŁ¥": 4081,
      "éĽ¾": 4082,
      "èĩ£": 4083,
      "çº½": 4084,
      "æĭĨ": 4085,
      "å®¶åħ·": 4086,
      "åĢ¡": 4087,
      "ç¬¬ä¸Ģæ¬¡": 4088,
      "åħ¨ä¼ļ": 4089,
      "å¤įåĲĪ": 4090,
      "åĽ½åĨħå¤ĸ": 4091,
      "èĩªä¿¡": 4092,
      "æĢª": 4093,
      "ç¨Ģ": 4094,
      "å¹¼åĦ¿": 4095,
      "æľīåĵªäºĽ": 4096,
      "æĪĴ": 4097,
      "æıĴ": 4098,
      "è¿ĺä¼ļ": 4099,
      "æ»¨": 4100,
      "èĩ³å°ĳ": 4101,
      "å¤©çļĦ": 4102,
      "ä¸įéĶĻ": 4103,
      "åı¸æ³ķ": 4104,
      "èĢĮä¸į": 4105,
      "æµģéĩı": 4106,
      "æµ·å¤ĸ": 4107,
      "å°Ĩåľ¨": 4108,
      "æ¢¯": 4109,
      "æĺĨ": 4110,
      "æĹ¥èµ·": 4111,
      "èĭ±è¯Ń": 4112,
      "éķ¿æĹ¶éĹ´": 4113,
      "åį°åĪ·": 4114,
      "çµĲ": 4115,
      "åħ©": 4116,
      "èĲ¥ä¸ļ": 4117,
      "åħģ": 4118,
      "æ¯ķä¸ļçĶŁ": 4119,
      "åĪ¤æĸŃ": 4120,
      "æĭĵå±ķ": 4121,
      "ä»¥ä¸º": 4122,
      "é¢ĨåŁŁçļĦ": 4123,
      "éĥ½è¦ģ": 4124,
      "èĬ¯": 4125,
      "çĮ«": 4126,
      "åĮ»èį¯": 4127,
      "33": 4128,
      "å®ļçļĦ": 4129,
      "åħ±åĴĮåĽ½": 4130,
      "æ¦Ĥå¿µ": 4131,
      "åŁºåĽł": 4132,
      "æłĳç«ĭ": 4133,
      "åĪĿå¿ĥ": 4134,
      "äºļæ´²": 4135,
      "èį£èªī": 4136,
      "ä¿¡åı·": 4137,
      "å·¥ä½ľä¸Ń": 4138,
      "ä¸ŃåĽ½çļĦ": 4139,
      "æ¡Ĥ": 4140,
      "è®¤åı¯": 4141,
      "éħįç½®": 4142,
      "çªģçĦ¶": 4143,
      "é¡µ": 4144,
      "æĢ»ç»ıçĲĨ": 4145,
      "æĿĥåĪ©": 4146,
      "é¥±": 4147,
      "çĸ²": 4148,
      "åĽ½å¤ĸ": 4149,
      "æ°ĶåĢĻ": 4150,
      "åıĤèĢĥ": 4151,
      "å¤§æķ°æį®": 4152,
      "å¦Ļ": 4153,
      "æĭħå½ĵ": 4154,
      "åĲįåŃĹ": 4155,
      "çļĦç²¾ç¥ŀ": 4156,
      "mm": 4157,
      "åıĸå¾ĹäºĨ": 4158,
      "å®īåħ¨çĶŁäº§": 4159,
      "æł¼å±Ģ": 4160,
      "éĿ¢åĲĳ": 4161,
      "æľŁå¾ħ": 4162,
      "åŃ©åŃĲçļĦ": 4163,
      "éĢļä¿¡": 4164,
      "åįļçī©": 4165,
      "å¾Īå®¹æĺĵ": 4166,
      "å½ĵä¸Ń": 4167,
      "åı¯ä»¥åľ¨": 4168,
      "èĩªåĬ¨åĮĸ": 4169,
      "ä½İäºİ": 4170,
      "æĿ¥æºĲ": 4171,
      "éĻķè¥¿": 4172,
      "è¾Ī": 4173,
      "åħ¶æ¬¡": 4174,
      "çĶ·äºº": 4175,
      "éĨ«": 4176,
      "å¯ĨåĪĩ": 4177,
      "éĮ": 4178,
      "å§»": 4179,
      "æķ´åĲĪ": 4180,
      "å½°": 4181,
      "å¼ķè¿Ľ": 4182,
      "ç¾İå¥½": 4183,
      "çļĦæľįåĬ¡": 4184,
      "éĤ£ä¸ª": 4185,
      "éŃĶ": 4186,
      "æľīä¸Ģä¸ª": 4187,
      "ä¸įçŁ¥éģĵ": 4188,
      "2012": 4189,
      "æĥĳ": 4190,
      "åī©": 4191,
      "æĪ¿åľ°äº§": 4192,
      "åħļå»º": 4193,
      "èĳ£äºĭéķ¿": 4194,
      "æħ¢æĢ§": 4195,
      "59": 4196,
      "éĶĮ": 4197,
      "åħ³å¿ĥ": 4198,
      "ä»ĸåľ¨": 4199,
      "åľºæ¯ĶèµĽ": 4200,
      "çĥĪçļĦ": 4201,
      "å®īå¾½": 4202,
      "æĪĲçļĦ": 4203,
      "åįģåħ«": 4204,
      "éĻ¢éķ¿": 4205,
      "æıĲåīį": 4206,
      "åħ¨åĬĽ": 4207,
      "ä½ĵä¼ļ": 4208,
      "æįĲ": 4209,
      "ä¹īåĬ¡": 4210,
      "çºº": 4211,
      "æĦŁè°¢": 4212,
      "ç»ŁçŃ¹": 4213,
      "è§£åĨ³æĸ¹æ¡Ī": 4214,
      "ç¦»åŃĲ": 4215,
      "åħ¸åŀĭ": 4216,
      "ç»ıæµİåıĳå±ķ": 4217,
      "æľīæķĪçļĦ": 4218,
      "è´¯å½»èĲ½å®ŀ": 4219,
      "éĶ»çĤ¼": 4220,
      "æŃ£è§Ħ": 4221,
      "æĬĢæľ¯çļĦ": 4222,
      "å¤įåħ´": 4223,
      "æľĪç»ı": 4224,
      "ä¸Ńèį¯": 4225,
      "æıĲéĨĴ": 4226,
      "ä¹Łåľ¨": 4227,
      "åĲĲ": 4228,
      "èĢĥçĶŁ": 4229,
      "çºªå¿µ": 4230,
      "å¥ĳ": 4231,
      "è¤": 4232,
      "æĥ³åĪ°": 4233,
      "æĺ¯æľī": 4234,
      "ç»ıåħ¸": 4235,
      "ä¸Ģä½į": 4236,
      "æĸ°çĸĨ": 4237,
      "è®©æĪĳä»¬": 4238,
      "ä»ªå¼ı": 4239,
      "å¦Ĥä¸ĭ": 4240,
      "è¡¨æ¼Ķ": 4241,
      "åįıåĲĮ": 4242,
      "åĩºå¸Ń": 4243,
      "éģ¸": 4244,
      "åħ¶å®ĥ": 4245,
      "ä¸Ģä»£": 4246,
      "åŃ¤": 4247,
      "åĩ¤": 4248,
      "åĲĪéĢĤ": 4249,
      "è§Ħå®ļçļĦ": 4250,
      "åħ¨å¸Ĥ": 4251,
      "2010": 4252,
      "sh": 4253,
      "æŁľ": 4254,
      "åĨ²åĩ»": 4255,
      "çļĦä¸»": 4256,
      "æİĺ": 4257,
      "åĬłçĽŁ": 4258,
      "çĤĴ": 4259,
      "æµħ": 4260,
      "éŃı": 4261,
      "äºĮåįģå¤§": 4262,
      "è¥¿å®ī": 4263,
      "ç¡ķå£«": 4264,
      "37": 4265,
      "ï¿": 4266,
      "è´µå·ŀ": 4267,
      "å¯Ħ": 4268,
      "åįģä¸ī": 4269,
      "åĽ½æ°ĳ": 4270,
      "éĻª": 4271,
      "å¹¶æ²¡æľī": 4272,
      "æ·Ģ": 4273,
      "çº¿ä¸Ĭ": 4274,
      "å¾Īå¿«": 4275,
      "ç»´æĮģ": 4276,
      "ar": 4277,
      "è¯´çļĦ": 4278,
      "è®Ĭ": 4279,
      "çī¹æĢ§": 4280,
      "ç¡®å®ŀ": 4281,
      "ä¸Ģæī¹": 4282,
      "å¸Ĥå§Ķ": 4283,
      "éĶĪéĴ¢": 4284,
      "æ·ĭ": 4285,
      "å¾ĹåĪ°äºĨ": 4286,
      "ä¸Ģæ®µ": 4287,
      "ä¸ĸçķĮä¸Ĭ": 4288,
      "è¿Ł": 4289,
      "34": 4290,
      "æĹ©å·²": 4291,
      "32": 4292,
      "æĶ¶çĽĬ": 4293,
      "æ²Ĵæľī": 4294,
      "åīª": 4295,
      "å¤ļåħĥ": 4296,
      "å·®å¼Ĥ": 4297,
      "åħ¬çĽĬ": 4298,
      "åŁİä¹¡": 4299,
      "è¯ķçĤ¹": 4300,
      "ç¨į": 4301,
      "æ°´çļĦ": 4302,
      "èº«ä¸Ĭ": 4303,
      "ä¼Ļä¼´": 4304,
      "æ·ĺ": 4305,
      "æ°´æŀľ": 4306,
      "åĽŃåĮº": 4307,
      "åħĦ": 4308,
      "çľģå§Ķ": 4309,
      "çŁĽ": 4310,
      "æĲŀ": 4311,
      "èľľ": 4312,
      "æ©¡èĥ¶": 4313,
      "çī§": 4314,
      "ç°": 4315,
      "åĺ´": 4316,
      "åı¯è§ģ": 4317,
      "æľºéģĩ": 4318,
      "åģľæŃ¢": 4319,
      "éģĭ": 4320,
      "åĬłçĥŃ": 4321,
      "è£ħä¿®": 4322,
      "æ¢¦æĥ³": 4323,
      "éķ¿çļĦ": 4324,
      "ãĢĭ(": 4325,
      "æĿ¡ä¾ĭ": 4326,
      "å¤ļæł·": 4327,
      "æµ¸": 4328,
      "å»·": 4329,
      "å°Ĩä¼ļ": 4330,
      "çļĦéľĢæ±Ĥ": 4331,
      "æ£®æŀĹ": 4332,
      "ï¿½": 4333,
      "é¢ģ": 4334,
      "åĤ¬": 4335,
      "è®¸åı¯": 4336,
      "èİ·åıĸ": 4337,
      "ä½¿çĶ¨çļĦ": 4338,
      "å©ļå§»": 4339,
      "åīįçļĦ": 4340,
      "é»İ": 4341,
      "åĩłå¹´": 4342,
      "ä¹ĭè·¯": 4343,
      "åľ°ä¸ĭ": 4344,
      "ä¿Ĭ": 4345,
      "æħĪ": 4346,
      "æĴŀ": 4347,
      "è§Ĥå¿µ": 4348,
      "âĢķ": 4349,
      "çĸ¼çĹĽ": 4350,
      "çĹħä¾ĭ": 4351,
      "åŁİéķĩ": 4352,
      "éĥ½èĥ½": 4353,
      "ç»ıæµİç¤¾ä¼ļ": 4354,
      "æĢĢåŃķ": 4355,
      "ä»°": 4356,
      "é¢¨": 4357,
      "åľ°çļĦ": 4358,
      "æ´»åĬĽ": 4359,
      "èĢķ": 4360,
      "æıĲåĩºäºĨ": 4361,
      "ä½ľèĢħ": 4362,
      "æĸ¹ä½į": 4363,
      "å¤©æ°Ķ": 4364,
      "å®ŀéĻħä¸Ĭ": 4365,
      "æĿ¥åĪ°": 4366,
      "è®ºæĸĩ": 4367,
      "åĲĮæ¯Ķå¢ŀéķ¿": 4368,
      "48": 4369,
      "çłĶç©¶éĻ¢": 4370,
      "èĴĻåı¤": 4371,
      "åĲĪæ³ķ": 4372,
      "æ¿Ģåħī": 4373,
      "çĽĪ": 4374,
      "ä¸Ĭæ¶¨": 4375,
      "çļĦçĶŁäº§": 4376,
      "ä¸ĭåįĪ": 4377,
      "å¯Ĩå°ģ": 4378,
      "èī²å½©": 4379,
      "çĶŁåŃĺ": 4380,
      "æµ·æ´ĭ": 4381,
      "æĬ¥åĲį": 4382,
      "åĽ½çļĦ": 4383,
      "ä¸Ģå¤©": 4384,
      "æĪĳä»¬è¦ģ": 4385,
      "è®¤å®ļ": 4386,
      "æĺ¯éĿŀå¸¸": 4387,
      "å¹¿è¥¿": 4388,
      "2011": 4389,
      "éĴ»": 4390,
      "é©¬åħĭæĢĿä¸»ä¹ī": 4391,
      "æĽ¹": 4392,
      "è´§å¸ģ": 4393,
      "æīĢæľīçļĦ": 4394,
      "åıĳåĬ¨": 4395,
      "ç²¾å½©": 4396,
      "æ¸¸å®¢": 4397,
      "åľ¨ä¸į": 4398,
      "åĴĮåħ¶ä»ĸ": 4399,
      "çŁ¥è¯Ĩäº§æĿĥ": 4400,
      "æ±ģ": 4401,
      "å½¢æĢģ": 4402,
      "äººæķ°": 4403,
      "åŁºç¡Ģè®¾æĸ½": 4404,
      "å¤§éĩıçļĦ": 4405,
      "èµ¢å¾Ĺ": 4406,
      "ç±»ä¼¼": 4407,
      "ç§ĳæĬĢåĪĽæĸ°": 4408,
      "æĦ¿æĦı": 4409,
      "èĢĥå¯Ł": 4410,
      "75": 4411,
      "å£°éŁ³": 4412,
      "åĲ¹": 4413,
      "æīĵå¼Ģ": 4414,
      "äº§ä¸ļéĵ¾": 4415,
      "äººç¾¤": 4416,
      "åħ¬å¹³": 4417,
      "ä¸ĭäºĨ": 4418,
      "å¸Ĥæ°ĳ": 4419,
      "å±ķè§Ī": 4420,
      "çķª": 4421,
      "å¸¦åĬ¨": 4422,
      "çĩķ": 4423,
      "åĮºåĪ«": 4424,
      "æĪ¿å±ĭ": 4425,
      "åĴĸ": 4426,
      "å¥Ķ": 4427,
      "æķĻèĤ²éĥ¨": 4428,
      "éĦ": 4429,
      "èµ´": 4430,
      "åŃ©åŃĲä»¬": 4431,
      "å¯¹æŃ¤": 4432,
      "å°Ĭéĩį": 4433,
      "åı°æ¹¾": 4434,
      "åĪ¥": 4435,
      "ä¸īæĺ¯": 4436,
      "åīĳ": 4437,
      "æĳĩ": 4438,
      "éŃĤ": 4439,
      "çļĦåŁºæľ¬": 4440,
      "æľ¬äºº": 4441,
      "å·¨å¤§": 4442,
      "åĩĮ": 4443,
      "ä»£è°¢": 4444,
      "æµ¦": 4445,
      "åĬłéĢŁ": 4446,
      "æĿĥçĽĬ": 4447,
      "ç»ĦåĲĪ": 4448,
      "ä¸¥éĩįçļĦ": 4449,
      "æĽ´æĸ°": 4450,
      "åŃ¦èĢħ": 4451,
      "æ¤Ĵ": 4452,
      "ä½ľé£İ": 4453,
      "å¹¶åľ¨": 4454,
      "èĲ¥éĢł": 4455,
      "çĶ³æĬ¥": 4456,
      "æĸĹäºī": 4457,
      "çĪ·": 4458,
      "çĶµåķĨ": 4459,
      "å°ıåŃ¦": 4460,
      "æĻ°": 4461,
      "åłĨ": 4462,
      "æĥħæĦŁ": 4463,
      "èĬ³": 4464,
      "è¾ĥé«ĺ": 4465,
      "ç®Ģç§°": 4466,
      "æĮ¯åħ´": 4467,
      "ç¢°": 4468,
      "é©¾é©¶": 4469,
      "å¸«": 4470,
      "ä¸ĩåĲ¨": 4471,
      "æīįæĺ¯": 4472,
      "åķı": 4473,
      "ç¦ıå»º": 4474,
      "çĽĳæİ§": 4475,
      "åĩºçİ°äºĨ": 4476,
      "ä¸įéĶĪéĴ¢": 4477,
      "åº·å¤į": 4478,
      "å¤§å¹ħ": 4479,
      "èĦ¾": 4480,
      "åĨĽäºĭ": 4481,
      "åħĨ": 4482,
      "èĵĦ": 4483,
      "è°ĥçłĶ": 4484,
      "éķĢ": 4485,
      "55": 4486,
      "çĽ²": 4487,
      "éī´å®ļ": 4488,
      "ç²¾åĩĨ": 4489,
      "æĶ¹è¿Ľ": 4490,
      "è½¬ç§»": 4491,
      "åĩŃåĢŁ": 4492,
      "æĽ°": 4493,
      "ç¾½": 4494,
      "å¼Ĺ": 4495,
      "èĩªè¡Į": 4496,
      "ç¨¿": 4497,
      "è¿ĳæľŁ": 4498,
      "99": 4499,
      "æºª": 4500,
      "çļĦèĥ½åĬĽ": 4501,
      "åīįè¿Ľ": 4502,
      "éĩĮéĿ¢": 4503,
      "ç´§å¼ł": 4504,
      "çĭĤ": 4505,
      "è¬": 4506,
      "æ¸¡": 4507,
      "çŁĽçĽ¾": 4508,
      "åĻª": 4509,
      "æľīåĬ©": 4510,
      "å£³": 4511,
      "ç¼ĵè§£": 4512,
      "ä»Ķ": 4513,
      "åĬ¨ä½ľ": 4514,
      "å¦¹": 4515,
      "èĢĮåľ¨": 4516,
      "æ°ĳéĹ´": 4517,
      "åĶ®åĲİ": 4518,
      "æĳ¸": 4519,
      "..": 4520,
      "çļĦå¤ĸ": 4521,
      "ä¸ŃåŃ¦": 4522,
      "æĻĴ": 4523,
      "è¾©": 4524,
      "å®ĹæĹ¨": 4525,
      "PP": 4526,
      "æĮĩæķ°": 4527,
      "åŃ£åº¦": 4528,
      "åį°åº¦": 4529,
      "äº§éĩı": 4530,
      "å¸¦æĿ¥çļĦ": 4531,
      "ç«ŀäºīåĬĽ": 4532,
      "æĬĳåĪ¶": 4533,
      "å¼·": 4534,
      "å½¢æĪĲäºĨ": 4535,
      "æİ¨åĩº": 4536,
      "æŁĲäºĽ": 4537,
      "ä¿±ä¹Ĳ": 4538,
      "åĲ¦åĪĻ": 4539,
      "çºªå¾ĭ": 4540,
      "å¯»æī¾": 4541,
      "å¸ĪçĶŁ": 4542,
      "éĿĴå°ĳå¹´": 4543,
      "ä¹Łå°±": 4544,
      "éĶĻè¯¯": 4545,
      "æĸ¤": 4546,
      "ä¸ĭåİ»": 4547,
      "å¦ĩå¥³": 4548,
      "ä¿±ä¹Ĳéĥ¨": 4549,
      "çĲ´": 4550,
      "ä»ĬåĲİ": 4551,
      "çļĦä½¿çĶ¨": 4552,
      "åģļæ³ķ": 4553,
      "æľºåĻ¨äºº": 4554,
      "åĴĮåıĳå±ķ": 4555,
      "åŁĭ": 4556,
      "ä¸ªæĢ§": 4557,
      "é©±åĬ¨": 4558,
      "çĻ½çĻľé£İæĤ£èĢħ": 4559,
      "å®ļåĪ¶": 4560,
      "èģĬ": 4561,
      "ç½ĳåıĭ": 4562,
      "å¥½å¥½": 4563,
      "çĻ¾å§ĵ": 4564,
      "æ²ĥ": 4565,
      "å¾¡": 4566,
      "è¾ĵéĢģ": 4567,
      "æ°ĽåĽ´": 4568,
      "çĶŁæ´»çļĦ": 4569,
      "ä¸Ģç³»åĪĹ": 4570,
      "ä¸Ńæľī": 4571,
      "æķ´æĶ¹": 4572,
      "çĶŁæĢģçİ¯å¢ĥ": 4573,
      "æŃ¤åīį": 4574,
      "äººæ°ĳåħ±åĴĮåĽ½": 4575,
      "ä¼ĳæģ¯": 4576,
      "åĲĪæĪĲ": 4577,
      "æĿ¥äºĨ": 4578,
      "åı¯æĮģç»Ń": 4579,
      "åĬłéĩį": 4580,
      "æĶ»åĿļ": 4581,
      "è´«åĽ°": 4582,
      "èĬĤçº¦": 4583,
      "èµĶåģ¿": 4584,
      "èµ«": 4585,
      "åĳ½è¿Ĳ": 4586,
      "äºĶå¹´": 4587,
      "ç»ĨèıĮ": 4588,
      "éģĹä¼ł": 4589,
      "æĢ§æł¼": 4590,
      "æģ°": 4591,
      "åĬ©åĬĽ": 4592,
      "è®ºåĿĽ": 4593,
      "èŁ": 4594,
      "çļĦä¸Ń": 4595,
      "å¼¯": 4596,
      "å®¶äºº": 4597,
      "ä¸Ńåįİäººæ°ĳåħ±åĴĮåĽ½": 4598,
      "ä¸ľåĮĹ": 4599,
      "è¿ĺèĥ½": 4600,
      "åĲĦä½į": 4601,
      "å¹»": 4602,
      "è¿ĳæĹ¥": 4603,
      "å¤§çº¦": 4604,
      "ç½ĳä¸Ĭ": 4605,
      "æī§æ³ķ": 4606,
      "æľīä»Ģä¹Ī": 4607,
      "ç§įç±»": 4608,
      "åł¡": 4609,
      "çıŃåŃĲ": 4610,
      "çĨĬ": 4611,
      "äººåĬĽ": 4612,
      "æ¡Į": 4613,
      "åĽŀåĪ°": 4614,
      "ä¸Ģå¸¦": 4615,
      "å§¿": 4616,
      "æ¡Ĩ": 4617,
      "èĭ±éĽĦ": 4618,
      "èĤºçĤİ": 4619,
      "åĦ¿åŃĲ": 4620,
      "æłĳèĦĤ": 4621,
      "ç§¯ç´¯": 4622,
      "èģĮä¸ļæķĻèĤ²": 4623,
      "æĸĩçī©": 4624,
      "çĽ´åĪ°": 4625,
      "åĭĥ": 4626,
      "æĭħå¿ĥ": 4627,
      "å¸ħ": 4628,
      "æ¡ĳ": 4629,
      "39": 4630,
      "éĺ²æĬ¤": 4631,
      "äººæīįåŁ¹åħ»": 4632,
      "èĤ¡ç¥¨": 4633,
      "ç©ºè°ĥ": 4634,
      "æ±Łè¥¿": 4635,
      "åįļçī©é¦Ĩ": 4636,
      "æ¯ģ": 4637,
      "å±±è¥¿": 4638,
      "æĺ¯åĽłä¸º": 4639,
      "ä¸įçĶ¨": 4640,
      "å»ºè®¾çļĦ": 4641,
      "åĬ£": 4642,
      "ä¸ĬåįĪ": 4643,
      "åħ¬åĳĬ": 4644,
      "èģĶçĽŁ": 4645,
      "2008": 4646,
      "çĽ¸ç»ĵåĲĪ": 4647,
      "çĶµæ°Ķ": 4648,
      "æŃ¤æĹ¶": 4649,
      "æİ¥ä¸ĭæĿ¥": 4650,
      "çĸ«æĥħéĺ²æİ§": 4651,
      "åħ¬ä¼Ĺ": 4652,
      "èº«è¾¹": 4653,
      "æµ©": 4654,
      "èī²çļĦ": 4655,
      "äºĨæĪĳ": 4656,
      "åŃĿ": 4657,
      "èĤ¡ä»½æľīéĻĲåħ¬åı¸": 4658,
      "éĢļéģĵ": 4659,
      "åīĬ": 4660,
      "åı¯ä»¥è¯´": 4661,
      "å¤§èµĽ": 4662,
      "å°ıç¼ĸ": 4663,
      "æ£ī": 4664,
      "èİ·å¾ĹäºĨ": 4665,
      "æįķ": 4666,
      "åı¤ä»£": 4667,
      "åħļçļĦäºĮåįģå¤§": 4668,
      "ç©·": 4669,
      "ä¸§": 4670,
      "æµ·åįĹ": 4671,
      "åĽ½å®¶çļĦ": 4672,
      "è¾¨": 4673,
      "å¤±è´¥": 4674,
      "65": 4675,
      "æ¯ıä¸Ģä¸ª": 4676,
      "åıĳè¡Į": 4677,
      "åľ°çĲĥ": 4678,
      "ä»¥ä¸ĬçļĦ": 4679,
      "çİ©å®¶": 4680,
      "æľīæĹ¶": 4681,
      "é«ĺä¸Ń": 4682,
      "å°ĳæķ°": 4683,
      "ä¸Ģçº§": 4684,
      "è¡ĵ": 4685,
      "ç½©": 4686,
      "çĿ¡çľł": 4687,
      "å®ŀçİ°äºĨ": 4688,
      "çļĦé£Łçī©": 4689,
      "æĪĲæķĪ": 4690,
      "èŀįåħ¥": 4691,
      "æĻļä¸Ĭ": 4692,
      "çŃīçº§": 4693,
      "åŃķå¦ĩ": 4694,
      "äººä¸º": 4695,
      "ä¸įå¤Ł": 4696,
      "æĺİçĻ½": 4697,
      "é¢Ħç®Ĺ": 4698,
      "å¥¥è¿Ĳ": 4699,
      "ç»Ŀå¯¹": 4700,
      "çĻ¾åĪĨçĤ¹": 4701,
      "æŁ³": 4702,
      "èİ²": 4703,
      "è¶³å¤Ł": 4704,
      "æĸ°æĹ¶ä»£ä¸ŃåĽ½çī¹èī²ç¤¾ä¼ļä¸»ä¹ī": 4705,
      "æıŃ": 4706,
      "çĥŃæĥħ": 4707,
      "ä¸įäºĨ": 4708,
      "è¿ĩæ»¤": 4709,
      "åĴĮå¹³": 4710,
      "éªĳ": 4711,
      "åĳ¨å¹´": 4712,
      "ç²®é£Ł": 4713,
      "ç½Ĳ": 4714,
      "æĽ´å¥½åľ°": 4715,
      "å¤¹": 4716,
      "æĹ¥åŃĲ": 4717,
      "çĶµæľº": 4718,
      "æĶ¿åįı": 4719,
      "åıĺæĪĲ": 4720,
      "æĮ¤": 4721,
      "ä¸ĵçĶ¨": 4722,
      "ä¸ĵç§ĳ": 4723,
      "èĤ©": 4724,
      "å¼Ģæĭĵ": 4725,
      "çĶµèĦĳ": 4726,
      "åĨħæ¶µ": 4727,
      "æľįçĶ¨": 4728,
      "è£ķ": 4729,
      "çļĦä¸ĵä¸ļ": 4730,
      "èĮĥåĽ´åĨħ": 4731,
      "åĪĨç¦»": 4732,
      "æĪĺæĸĹ": 4733,
      "è§ĤçĤ¹": 4734,
      "å¸¸è§ģçļĦ": 4735,
      "ä¼łæĦŁ": 4736,
      "æ··åĩĿ": 4737,
      "pp": 4738,
      "åį±æľº": 4739,
      "çº·çº·": 4740,
      "å¤Ħç½®": 4741,
      "åĮħåĲ«": 4742,
      "å¹²åĩĢ": 4743,
      "åħģè®¸": 4744,
      "å®ª": 4745,
      "åŃŁ": 4746,
      "ä¹Ļçĥ¯": 4747,
      "èµĦè´¨": 4748,
      "çĽ´æĴŃ": 4749,
      "éĩĩè®¿": 4750,
      "èĤ¡ä¸ľ": 4751,
      "è¦ĭ": 4752,
      "çĨ±": 4753,
      "æ»ļ": 4754,
      "æĮĩæĮ¥": 4755,
      "éĿĴå²Ľ": 4756,
      "å¯Ĩåº¦": 4757,
      "æĸ°å¢ŀ": 4758,
      "å©Ĩ": 4759,
      "åı¦ä¸Ģæĸ¹éĿ¢": 4760,
      "åļ": 4761,
      "èĢĢ": 4762,
      "åıįå¤į": 4763,
      "ä¸ªçĻ¾åĪĨçĤ¹": 4764,
      "éĢĤçĶ¨": 4765,
      "æ¯ıä¸ªäºº": 4766,
      "è¡Ĺéģĵ": 4767,
      "æīİå®ŀ": 4768,
      "éĥ¨éķ¿": 4769,
      "åĤ³": 4770,
      "å±ħä½ı": 4771,
      "ãĢį,": 4772,
      "åľ°çĲĨ": 4773,
      "åĽŀçŃĶ": 4774,
      "åķ¡": 4775,
      "åĩĿèģļ": 4776,
      "çĸ¾çĹħçļĦ": 4777,
      "ç£·": 4778,
      "éĻĦè¿ĳ": 4779,
      "æĶ¶éĽĨ": 4780,
      "éķ¿æ±Ł": 4781,
      "æħ¢æħ¢": 4782,
      "éĹª": 4783,
      "ä¸īå¤§": 4784,
      "æĲı": 4785,
      "å°Ī": 4786,
      "å¤§ä¼Ĺ": 4787,
      "çĥĤ": 4788,
      "å¸¸å¸¸": 4789,
      "çłĶç©¶æīĢ": 4790,
      "49": 4791,
      "éĴ¢ç®¡": 4792,
      "çĶ¨éĢĶ": 4793,
      "å°İ": 4794,
      "åħļåĴĮ": 4795,
      "æĥ³è±¡": 4796,
      "åĩºåıĳ": 4797,
      "éľį": 4798,
      "èªį": 4799,
      "çĸ«èĭĹ": 4800,
      "æ¼Ĥ": 4801,
      "ä¾¿åĪ©": 4802,
      "çľĭçľĭ": 4803,
      "è¥¿éĥ¨": 4804,
      "åĵ²åŃ¦": 4805,
      "æĬķèµĦèĢħ": 4806,
      "å¼ĺæī¬": 4807,
      "éĽĨæĪĲ": 4808,
      "åĨ¶": 4809,
      "åıįå¯¹": 4810,
      "é«ĺäºİ": 4811,
      "å¾ĭå¸Ī": 4812,
      "ä¼ļåĳĺ": 4813,
      "çļĦåİŁåĪĻ": 4814,
      "æ¸ħæĻ°": 4815,
      "äº§çĶŁçļĦ": 4816,
      "è¾ħåĬ©": 4817,
      "å½±çīĩ": 4818,
      "ä¹Łå¾Ī": 4819,
      "åĿĩåĮĢ": 4820,
      "ç´§å¯Ĩ": 4821,
      "å¥īçĮ®": 4822,
      "éĺŁçļĦ": 4823,
      "ä¹¦æ³ķ": 4824,
      "åĽ¾çīĩ": 4825,
      "æĭĮ": 4826,
      "æ¶ĪéĻ¤": 4827,
      "èĪªå¤©": 4828,
      "ç¬¬åħŃ": 4829,
      "çĶ·åŃĲ": 4830,
      "éļĲæĤ£": 4831,
      "æĪĸè®¸": 4832,
      "ä¼Ĳ": 4833,
      "æĶ¯åĩº": 4834,
      "âĹ": 4835,
      "æĭĸ": 4836,
      "çĥŃæ°´": 4837,
      "é¡Į": 4838,
      "åŀĤ": 4839,
      "éĿŀæ³ķ": 4840,
      "åĮĹäº¬å¸Ĥ": 4841,
      "å¤§åŃ¦çĶŁ": 4842,
      "éłŃ": 4843,
      "åıĤè§Ĥ": 4844,
      "é¢Ĺç²Ĵ": 4845,
      "è¥¿æĸ¹": 4846,
      "éĸĢ": 4847,
      "å¢ĵ": 4848,
      "æĺ¥èĬĤ": 4849,
      "æ¡¶": 4850,
      "æľºåºĬ": 4851,
      "æľĢæĸ°": 4852,
      "åī¯ä¸»ä»»": 4853,
      "éĤ»": 4854,
      "ä¸įå¾Ĺä¸į": 4855,
      "çĶŁèĤ²": 4856,
      "åħļç»Ħç»ĩ": 4857,
      "çī©èģĶç½ĳ": 4858,
      "ä¿¡å¿µ": 4859,
      "å·¥ç¨ĭå¸Ī": 4860,
      "é¬¼": 4861,
      "æįŁä¼¤": 4862,
      "äºĪä»¥": 4863,
      "èĪŀåı°": 4864,
      "éĬ": 4865,
      "ä¸ĢåĢĭ": 4866,
      "éĥ½åı¯ä»¥": 4867,
      "çļĦåŁºç¡Ģä¸Ĭ": 4868,
      "æĺ¯å¯¹": 4869,
      "çº²": 4870,
      "äººæ°ĳç¾¤ä¼Ĺ": 4871,
      "2009": 4872,
      "éĢıæĺİ": 4873,
      "åĩºæĿ¥çļĦ": 4874,
      "åĨ·åį´": 4875,
      "æľīåħ³éĥ¨éĹ¨": 4876,
      "åĴĸåķ¡": 4877,
      "åħ³èĬĤ": 4878,
      "åīįåĪĹ": 4879,
      "æľŁæľĽ": 4880,
      "ç¡®è®¤": 4881,
      "ä¼łç»ŁçļĦ": 4882,
      "æ°¢": 4883,
      "åĮºçļĦ": 4884,
      "æ¯ıæ¬¡": 4885,
      "åĴĮæľįåĬ¡": 4886,
      "è®©æĪĳ": 4887,
      "ç¬¬ä¸Ģä¸ª": 4888,
      "æĺ¯æľĢ": 4889,
      "æĶ¾å¼ĥ": 4890,
      "äºĭåĬ¡": 4891,
      "æµ´": 4892,
      "ç«ĭè¶³": 4893,
      "æĸĩåĮĸçļĦ": 4894,
      "ç¶²": 4895,
      "è§Ģ": 4896,
      "çĽ¸åħ³çļĦ": 4897,
      "æ°ĳçĶŁ": 4898,
      "éģµå®Ī": 4899,
      "ä¹Łåı¯": 4900,
      "è¿Ļå°±æĺ¯": 4901,
      "åīįæĻ¯": 4902,
      "88": 4903,
      "åĵªéĩĮ": 4904,
      "ä½Ĩåľ¨": 4905,
      "åĪĽæĦı": 4906,
      "åıĳè¾¾": 4907,
      "ä¸ļç»©": 4908,
      "èĪĴéĢĤ": 4909,
      "è´º": 4910,
      "å·¢": 4911,
      "å°±åľ¨": 4912,
      "å²Ń": 4913,
      "çĦĬæİ¥": 4914,
      "åİ¦": 4915,
      "çĹħçļĦ": 4916,
      "æħ°": 4917,
      "å®¡è®¡": 4918,
      "æ¡Īä¾ĭ": 4919,
      "æĢĿè·¯": 4920,
      "åĿª": 4921,
      "æľīå®³": 4922,
      "ç®Ń": 4923,
      "åįıåĬ©": 4924,
      "çĽ¸åºĶçļĦ": 4925,
      "åĨħå¤ĸ": 4926,
      "åĽłçĤº": 4927,
      "åĩıè½»": 4928,
      "èµ°åĲĳ": 4929,
      "ç»Īäºİ": 4930,
      "æĢİæł·": 4931,
      "è®°å¿Ĩ": 4932,
      "çĨŁæĤī": 4933,
      "éĭ": 4934,
      "æĺĤ": 4935,
      "ä¸ºå®¢æĪ·": 4936,
      "èµĽäºĭ": 4937,
      "èĤĸ": 4938,
      "çī©åĵģ": 4939,
      "æĥ³æ³ķ": 4940,
      "ç¦ģæŃ¢": 4941,
      "è¿Ŀåıį": 4942,
      "çļĦæķĪæŀľ": 4943,
      "éħ¶": 4944,
      "è¢Ń": 4945,
      "åħ±æľī": 4946,
      "å®ĥæĺ¯": 4947,
      "ä¸ºæł¸å¿ĥ": 4948,
      "åĲįç§°": 4949,
      "å½±è§Ĩ": 4950,
      "åĳ¨è¾¹": 4951,
      "è¾Ĳ": 4952,
      "ä¸ĵé¢ĺ": 4953,
      "å¯¼åĲĳ": 4954,
      "ä¸»ç®¡éĥ¨éĹ¨": 4955,
      "è¯¾åłĤ": 4956,
      "å·¨å¤§çļĦ": 4957,
      "èĥģ": 4958,
      "åĸ®": 4959,
      "ä¹Łæ²¡æľī": 4960,
      "æķĻç»ĥ": 4961,
      "æĮº": 4962,
      "éŀĭ": 4963,
      "å¿ħçĦ¶": 4964,
      "çľĭæĿ¥": 4965,
      "åºŁæ°´": 4966,
      "ä¸Ģæĸ¹éĿ¢": 4967,
      "è¿Ļä¹Łæĺ¯": 4968,
      "ç²¾åº¦": 4969,
      "çĶ¨æ°´": 4970,
      "å¯¹æīĭ": 4971,
      "ä¸īåĪĨ": 4972,
      "ä¸¤å¹´": 4973,
      "æ¶Īæ¯Ĵ": 4974,
      "è´¢äº§": 4975,
      "400": 4976,
      "åĬĽåĴĮ": 4977,
      "è®²è§£": 4978,
      "æĺ¨": 4979,
      "çĮĽ": 4980,
      "èĢ¶": 4981,
      "è¾ĥä½İ": 4982,
      "æĤ¦": 4983,
      "åĲĮåŃ¦ä»¬": 4984,
      "æĿŃå·ŀ": 4985,
      "ç¡®è¯Ĭ": 4986,
      "å·©": 4987,
      "åĮ¹": 4988,
      "åıĳçļĦ": 4989,
      "ä¿®å¤į": 4990,
      "çļĦè§Ħå®ļ": 4991,
      "è´¤": 4992,
      "èĥº": 4993,
      "çĸ¹": 4994,
      "æľįè£ħ": 4995,
      "èĦ±è´«": 4996,
      "åľ°åĮºçļĦ": 4997,
      "æĹ¥çĽĬ": 4998,
      "æ¢Ŀ": 4999,
      "è§Ĩè§ī": 5000,
      "åıĳè¨Ģ": 5001,
      "éĢļé£İ": 5002,
      "æĹłè®ºæĺ¯": 5003,
      "ä¸Ī": 5004,
      "éĶ¡": 5005,
      "èµ·éĩį": 5006,
      "æĢĴ": 5007,
      "å¥ĸåĬ±": 5008,
      "ç·ļ": 5009,
      "çļĦåħ³éĶ®": 5010,
      "åİĭç¼©": 5011,
      "éĽ¶åĶ®": 5012,
      "æĢ§è´¨": 5013,
      "çļĦä¸ŃåĽ½": 5014,
      "åĩºåİ»": 5015,
      "å¨ĺ": 5016,
      "éĴ¢éĵģ": 5017,
      "æł¡éķ¿": 5018,
      "é»Ħéĩĳ": 5019,
      "or": 5020,
      "å¤§å°ı": 5021,
      "çº¿è·¯": 5022,
      "æ¸©æļĸ": 5023,
      "ä»¥åħį": 5024,
      "æĮ¡": 5025,
      "æĽ´é«ĺ": 5026,
      "è¿ĽçĲĥ": 5027,
      "é¸£": 5028,
      "è¼ĥ": 5029,
      "æ¶ĪèĢĹ": 5030,
      "åĪĻæĺ¯": 5031,
      "ä¼ĳéĹ²": 5032,
      "ç¥ĸåĽ½": 5033,
      "åľ¨è¿Ļä¸ª": 5034,
      "46": 5035,
      "çŃĸçķ¥": 5036,
      "å¾®ä¿¡": 5037,
      "æĶ¹éĿ©å¼ĢæĶ¾": 5038,
      "çĶ±æŃ¤": 5039,
      "é¡ŀ": 5040,
      "å½»åºķ": 5041,
      "å¯ĵ": 5042,
      "çĶ¨èį¯": 5043,
      "ä¼ĺåħĪ": 5044,
      "å¥³åĦ¿": 5045,
      "éĢłåŀĭ": 5046,
      "ä½ĵåĨħ": 5047,
      "åİ¨": 5048,
      "çĥĺ": 5049,
      "ä¸įæĺĵ": 5050,
      "æ¯ħ": 5051,
      "å±Ģéĥ¨": 5052,
      "ç«ŀèµĽ": 5053,
      "æķ°åŃ¦": 5054,
      "2023": 5055,
      "åłª": 5056,
      "èµł": 5057,
      "é¤Ĳé¥®": 5058,
      "é¹ı": 5059,
      "æıĲé«ĺäºĨ": 5060,
      "çļĩå¸Ŀ": 5061,
      "è¸ª": 5062,
      "ä¹Łè®¸": 5063,
      "æĻ¯è§Ĥ": 5064,
      "åįłåľ°": 5065,
      "å¿ĥéĩĮ": 5066,
      "åĬŁçİĩ": 5067,
      "åį°è±¡": 5068,
      "åģ·": 5069,
      "çĲĨäºĭ": 5070,
      "èĲ¬": 5071,
      "æĽ´æį¢": 5072,
      "æķħéļľ": 5073,
      "åĪĨéħį": 5074,
      "ä¾Ŀæīĺ": 5075,
      "æľµ": 5076,
      "è·¯çº¿": 5077,
      "ç§°åı·": 5078,
      "æ±¡æ°´å¤ĦçĲĨ": 5079,
      "å¸ĪèĮĥ": 5080,
      "å°½å¿«": 5081,
      "æĸ°æĹ¶ä»£ä¸ŃåĽ½çī¹èī²ç¤¾ä¼ļä¸»ä¹īæĢĿæĥ³": 5082,
      "æ³ķæ²»": 5083,
      "ä¸Ģä»½": 5084,
      "èµļ": 5085,
      "å·¥äºº": 5086,
      "é«ĺèĢĥ": 5087,
      "åīįå¾Ģ": 5088,
      "ch": 5089,
      "èĥļ": 5090,
      "æŁ´": 5091,
      "å¼ķèµ·çļĦ": 5092,
      "æº«": 5093,
      "é¡¹çĽ®çļĦ": 5094,
      "ä¸ŃåĽ½äººæ°ĳ": 5095,
      "èº«ä½ĵåģ¥åº·": 5096,
      "æ¯ķç«Ł": 5097,
      "é¢ĩ": 5098,
      "åģļäºĨ": 5099,
      "è¢«åĳĬ": 5100,
      "çĶµåĻ¨": 5101,
      "è¦ı": 5102,
      "èī³": 5103,
      "ç³ĸå°¿": 5104,
      "èĽĭçĻ½è´¨": 5105,
      "åįľ": 5106,
      "æĸĩèīº": 5107,
      "çĪ±çļĦ": 5108,
      "èĮħ": 5109,
      "ä¸¤äºº": 5110,
      "ä¸įä½Ĩ": 5111,
      "çĶ¨æĿ¥": 5112,
      "æŀª": 5113,
      "å¼ºå¤§": 5114,
      "æľīåĬ©äºİ": 5115,
      "åłµ": 5116,
      "çŁ©": 5117,
      "ç«Ļåľ¨": 5118,
      "å¯Įæľī": 5119,
      "çļĦåĨħå®¹": 5120,
      "å¥³åŃĲ": 5121,
      "çħ§çīĩ": 5122,
      "åĩºåı°": 5123,
      "äº§åĵģè´¨éĩı": 5124,
      "de": 5125,
      "åİļçļĦ": 5126,
      "é¢ĸ": 5127,
      "çĹķ": 5128,
      "è¦ģæľī": 5129,
      "å®¶éĩĮ": 5130,
      "æ··åĩĿåľŁ": 5131,
      "å¸¶": 5132,
      "èģļçĦ¦": 5133,
      "çļĦç®¡çĲĨ": 5134,
      "å½ķåıĸ": 5135,
      "æĬĽ": 5136,
      "åī¯ä¹¦è®°": 5137,
      "åĲĪçī©": 5138,
      "åľºæĻ¯": 5139,
      "çº³ç¨İ": 5140,
      "æľĢä½İ": 5141,
      "éĻ¶çĵ·": 5142,
      "èµģ": 5143,
      "åģļçļĦ": 5144,
      "è°Ĭ": 5145,
      "ä¿¡ä»»": 5146,
      "æ¿Ģåıĳ": 5147,
      "ä¸ĵæ³¨": 5148,
      "æĺ¯ä¸ª": 5149,
      "åĽ¾ä¹¦": 5150,
      "æĬĵä½ı": 5151,
      "è¯ĨåĪ«": 5152,
      "ä¸ľæĸ¹": 5153,
      "ç§Łèµģ": 5154,
      "çļĦå®īåħ¨": 5155,
      "éľ¸": 5156,
      "æľ´": 5157,
      "æĿ±": 5158,
      "éĩįéĩı": 5159,
      "çµ¦": 5160,
      "ED": 5161,
      "æīĢå¾Ĺ": 5162,
      "ç¼Ĩ": 5163,
      "åĭŁ": 5164,
      "äº§ä¸ļåıĳå±ķ": 5165,
      "çº³åħ¥": 5166,
      "åĲĮæĦı": 5167,
      "å¾Īæľī": 5168,
      "æĸ¹éĴĪ": 5169,
      "èĺ": 5170,
      "æķ´çĲĨ": 5171,
      "ä¸īè§Ĵ": 5172,
      "æĤ¨çļĦ": 5173,
      "åİĺ": 5174,
      "åį¢": 5175,
      "åİĮ": 5176,
      "éĢīçĶ¨": 5177,
      "å¤ļå®¶": 5178,
      "ä¾ĿéĿł": 5179,
      "è¾Ĳå°Ħ": 5180,
      "____": 5181,
      "é¼ł": 5182,
      "è«ĭ": 5183,
      "æĪĲå¹´": 5184,
      "å°±æľī": 5185,
      "äºĴåĬ¨": 5186,
      "æĬĵå¥½": 5187,
      "æµĵåº¦": 5188,
      "ãĢģâĢľ": 5189,
      "éģĶ": 5190,
      "æľīåĬĽ": 5191,
      "çŃīåľ°": 5192,
      "æİ¥è¿ĳ": 5193,
      "é¡¾å®¢": 5194,
      "ä¸Ģåľº": 5195,
      "ä¸įçŁ¥": 5196,
      "åįĥä¸ĩ": 5197,
      "58": 5198,
      "åĬ¨æĢģ": 5199,
      "ä¸ľåįĹ": 5200,
      "è¿Ľå±ķ": 5201,
      "åħļåı²": 5202,
      "çļĦçİ¯å¢ĥ": 5203,
      "æķ¦": 5204,
      "å¢ŀåĢ¼": 5205,
      "åľ°éĿ¢": 5206,
      "å¹´åºķ": 5207,
      "æĸ°åĮº": 5208,
      "çģµæ´»": 5209,
      "éĤĵ": 5210,
      "çħĮ": 5211,
      "æ³ª": 5212,
      "çŃĭ": 5213,
      "å·¥ä¼ļ": 5214,
      "è¿ĺåľ¨": 5215,
      "åħ¨èº«": 5216,
      "èĬĿ": 5217,
      "è¾½å®ģ": 5218,
      "æĪĳä»¬åľ¨": 5219,
      "ç¾¤ä½ĵ": 5220,
      "å·®è·Ŀ": 5221,
      "åĽ½å®¶åĴĮ": 5222,
      "åīĩ": 5223,
      "æĶ¶è´¹": 5224,
      "çĴ°": 5225,
      "æĽ´å¤§": 5226,
      "æĪĸæĺ¯": 5227,
      "æĤł": 5228,
      "è§£æĶ¾": 5229,
      "ä½ıå®ħ": 5230,
      "æĿĲæĸĻçļĦ": 5231,
      "å¼ĢåĲ¯": 5232,
      "åĲįåįķ": 5233,
      "æĿĳæ°ĳ": 5234,
      "èµ¤": 5235,
      "ä¸ĬéĿ¢": 5236,
      "æīĢéľĢ": 5237,
      "è¿ĩäºİ": 5238,
      "åĮ»å¸Ī": 5239,
      "åł±": 5240,
      "ä¸¾æİª": 5241,
      "å°Ĩåħ¶": 5242,
      "ç§ĺä¹¦": 5243,
      "çĶµæºĲ": 5244,
      "è®¼": 5245,
      "çļĦè¿ĩç¨ĭä¸Ń": 5246,
      "é¢Ħæµĭ": 5247,
      "æ°´åĪ©": 5248,
      "å±Ī": 5249,
      "èĢģå¹´äºº": 5250,
      "æ²¦": 5251,
      "æĳĺ": 5252,
      "åĪ°çļĦ": 5253,
      "è¿ĩåº¦": 5254,
      "çĬ¹": 5255,
      "ç»´åº¦": 5256,
      "æ¶²ä½ĵ": 5257,
      "çµ±": 5258,
      "å¤ļå¹´çļĦ": 5259,
      "åĩºè¡Ģ": 5260,
      "çī¢è®°": 5261,
      "é£İæľº": 5262,
      "æİĪæĿĥ": 5263,
      "æĪĲäºº": 5264,
      "æ£Ģå¯Ł": 5265,
      "æ³³": 5266,
      "èĢĮä¸įæĺ¯": 5267,
      "æĺ¯ä¸Ģå®¶": 5268,
      "æĽ¸": 5269,
      "çŃĽ": 5270,
      "åľ°è´¨": 5271,
      "åħ»æ®ĸ": 5272,
      "æ¿ĢåĬ±": 5273,
      "äººæ°ĳæ³ķéĻ¢": 5274,
      "ä¼ļåľ¨": 5275,
      "è½»æĿ¾": 5276,
      "çļĦçłĶç©¶": 5277,
      "ä¾Ľç»Ļ": 5278,
      "æĺ¯ä»¥": 5279,
      "çĹĽèĭ¦": 5280,
      "èį£èİ·": 5281,
      "äºĭå®ŀä¸Ĭ": 5282,
      "ä¸ŃéĹ´": 5283,
      "åį§": 5284,
      "å»ºç«ĭäºĨ": 5285,
      "äººå·¥æĻºèĥ½": 5286,
      "ä»ĸè¯´": 5287,
      "æķĪåºĶ": 5288,
      "æĦĽ": 5289,
      "è¿Ľç¨ĭ": 5290,
      "çĶŁäº§çļĦ": 5291,
      "è´§çī©": 5292,
      "çĽĴ": 5293,
      "å®ŀçĶ¨": 5294,
      "è¥¿çıŃ": 5295,
      "åı¯èĥ½æĺ¯": 5296,
      "åħļæĶ¯éĥ¨": 5297,
      "è¥¿çıŃçīĻ": 5298,
      "çļĦå¸Ĥåľº": 5299,
      "åĲĦèĩª": 5300,
      "éŃħ": 5301,
      "æĽ´æľī": 5302,
      "åºŁæ°Ķ": 5303,
      "éĥİ": 5304,
      "çĶ¨äºº": 5305,
      "é«ĺè¾¾": 5306,
      "å¨ģèĥģ": 5307,
      "åİī": 5308,
      "åŃĲå¥³": 5309,
      "å°ºå¯¸": 5310,
      "å»¶éķ¿": 5311,
      "èĭ¯": 5312,
      "å¯¼æ¼Ķ": 5313,
      "å¼¥": 5314,
      "ç¦ģåĮº": 5315,
      "ç§īæī¿": 5316,
      "ä¸įéľĢè¦ģ": 5317,
      "é¥¼": 5318,
      "å¢ŀéĢŁ": 5319,
      "é¤Ĭ": 5320,
      "ä¹Ķ": 5321,
      "é«ĺåİĭ": 5322,
      "å®¢è§Ĥ": 5323,
      "åĨ¬åŃ£": 5324,
      "èį¡": 5325,
      "è¦ģç´ł": 5326,
      "å®¡æī¹": 5327,
      "éĤĢè¯·": 5328,
      "åĿĬ": 5329,
      "åŀ«": 5330,
      "èĩ³äºİ": 5331,
      "ç»ĵå©ļ": 5332,
      "76": 5333,
      "è¡£æľį": 5334,
      "om": 5335,
      "ç©Ĩ": 5336,
      "åĲįçļĦ": 5337,
      "éĩĬæĶ¾": 5338,
      "èľĤ": 5339,
      "éļıæĹ¶": 5340,
      "åľ¨è¿ĻéĩĮ": 5341,
      "æ¸´": 5342,
      "è¯īè®¼": 5343,
      "æ¶¯": 5344,
      "ä¾¯": 5345,
      "å¼ºå¤§çļĦ": 5346,
      "è´¾": 5347,
      "åıĳæĺİ": 5348,
      "èĤ¡æĿĥ": 5349,
      "ä¼ļçļĦ": 5350,
      "çľŁçĲĨ": 5351,
      "åıī": 5352,
      "æ®¿": 5353,
      "éĺ²çģ«": 5354,
      "éĽ¢": 5355,
      "æĦıå¤ĸ": 5356,
      "ä¼ĺæĥł": 5357,
      "å½¼æŃ¤": 5358,
      "èįĴ": 5359,
      "æļĳ": 5360,
      "å¹¶éĿŀ": 5361,
      "ç¾İè§Ĥ": 5362,
      "ä¸ŃåĮ»èį¯": 5363,
      "ä»ĸåĢĳ": 5364,
      "æıĲäº¤": 5365,
      "åĪĳäºĭ": 5366,
      "éĺ²èĮĥ": 5367,
      "è§Ħæł¼": 5368,
      "åĵŃ": 5369,
      "æĻºèĥ½åĮĸ": 5370,
      "ä¹łè¿ĳå¹³æĸ°æĹ¶ä»£ä¸ŃåĽ½çī¹èī²ç¤¾ä¼ļä¸»ä¹īæĢĿæĥ³": 5371,
      "æ¬ł": 5372,
      "ç¯Ģ": 5373,
      "æŃ£ç¡®çļĦ": 5374,
      "è¿Ļä½į": 5375,
      "çļĦçī¹çĤ¹": 5376,
      "æĹłäºº": 5377,
      "æĶ¾åħ¥": 5378,
      "éģ¥": 5379,
      "éļ¾åº¦": 5380,
      "ä»·åĢ¼è§Ĥ": 5381,
      "å®ĹæķĻ": 5382,
      "ä¸Ģçº¿": 5383,
      "ç¼ĸåĪ¶": 5384,
      "ç¼ĸè¾ĳ": 5385,
      "95": 5386,
      "å¼Ħ": 5387,
      "çĨĶ": 5388,
      "ç»ĨèĬĤ": 5389,
      "è´¢å¯Į": 5390,
      "äºĭä¸ļåįķä½į": 5391,
      "æł½": 5392,
      "æĪĳæł¡": 5393,
      "æĶ¶èİ·": 5394,
      "éłħ": 5395,
      "å¤«å¦»": 5396,
      "è©²": 5397,
      "al": 5398,
      "çĪ±åĽ½": 5399,
      "å®¡æł¸": 5400,
      "ä¸Ģä½ĵåĮĸ": 5401,
      "85": 5402,
      "å¦Ĩ": 5403,
      "ç²¾åĵģ": 5404,
      "åĲĪçĲĨçļĦ": 5405,
      "æĸ°åħ´": 5406,
      "ä¹ĭä¸ĭ": 5407,
      "çľŁæŃ£çļĦ": 5408,
      "ä¸Ģä¸ªæĸ°çļĦ": 5409,
      "è¹Ī": 5410,
      "çĶ¨åĵģ": 5411,
      "ä¿Ŀåħ»": 5412,
      "åĽŃæŀĹ": 5413,
      "çĽĳçĿ£ç®¡çĲĨ": 5414,
      "æłª": 5415,
      "æĹ¥åħĥ": 5416,
      "??": 5417,
      "åºĻ": 5418,
      "æĢ»ç»Ł": 5419,
      "è¿ĲåĬ¨åĳĺ": 5420,
      "èĥĸ": 5421,
      "å¹¿åľº": 5422,
      "ç¸½": 5423,
      "çļĦåĬĽéĩı": 5424,
      "çİĽ": 5425,
      "æķ°åŃĹåĮĸ": 5426,
      "çººç»ĩ": 5427,
      "å¤§æ°Ķ": 5428,
      "æľªæĿ¥çļĦ": 5429,
      "æĭįæĳĦ": 5430,
      "èĤĮèĤī": 5431,
      "ä¼łæĦŁåĻ¨": 5432,
      "å¸¸è§Ħ": 5433,
      "æī¿åĮħ": 5434,
      "äºŃ": 5435,
      "èĨı": 5436,
      "çļĦåıĳçĶŁ": 5437,
      "åĲįä¸º": 5438,
      "èµ·äºĨ": 5439,
      "èĲ½åľ°": 5440,
      "åħĦå¼Ł": 5441,
      "æĦıå¤§åĪ©": 5442,
      "èĭ¹": 5443,
      "éĨī": 5444,
      "æµªè´¹": 5445,
      "éĶĲ": 5446,
      "æĵħ": 5447,
      "æī¹è¯Ħ": 5448,
      "èĲĿ": 5449,
      "æķ°æİ§": 5450,
      "ä¸įå¦Ĥ": 5451,
      "ä¿ĿåŃĺ": 5452,
      "è¯ŀ": 5453,
      "éŁ§": 5454,
      "åħĪè¿ĽçļĦ": 5455,
      "æ£ĭ": 5456,
      "å¹¿ä¸ľçľģ": 5457,
      "ä»²": 5458,
      "æľīåºı": 5459,
      "æĹ¥çļĦ": 5460,
      "æµģè¡Į": 5461,
      "å§Ķæīĺ": 5462,
      "åĽ¢ä½ĵ": 5463,
      "æķıæĦŁ": 5464,
      "éĺ²æ°´": 5465,
      "æĬ«": 5466,
      "åħ¨æĸ¹ä½į": 5467,
      "å·²æĪĲä¸º": 5468,
      "å½ĵä»£": 5469,
      "çŃ¾è®¢": 5470,
      "éĩĳé¢Ŀ": 5471,
      "æĹłçĸĳ": 5472,
      "è¶ħå£°": 5473,
      "èĢĲç£¨": 5474,
      "çĪ½": 5475,
      "çĭĢ": 5476,
      "ä¸įå¼Ģ": 5477,
      "æİ§èĤ¡": 5478,
      "äºĶè¡Įç¼º": 5479,
      "è·µè¡Į": 5480,
      "è¯»ä¹¦": 5481,
      "å½ĵå¹´": 5482,
      "æĺ¾çĦ¶": 5483,
      "æĩĪ": 5484,
      "æĸľ": 5485,
      "æľįåĬ¡çļĦ": 5486,
      "èĭ¹æŀľ": 5487,
      "åıĺéĿ©": 5488,
      "æĲŃéħį": 5489,
      "èĤ¢": 5490,
      "æĭ³": 5491,
      "éĢĶå¾Ħ": 5492,
      "å·©åĽº": 5493,
      "ç¨ĭåº¦ä¸Ĭ": 5494,
      "æĸ¯åĿ¦": 5495,
      "æī¿è¯º": 5496,
      "æī¶è´«": 5497,
      "at": 5498,
      "ç³ĸå°¿çĹħ": 5499,
      "è£¡": 5500,
      "æ²«": 5501,
      "æ¶¦æ»ĳ": 5502,
      "ç«Ń": 5503,
      "æĹ¥åīį": 5504,
      "ä¿®æĶ¹": 5505,
      "åįĬåľº": 5506,
      "èĩªèº«çļĦ": 5507,
      "78": 5508,
      "æĽ´å¤§çļĦ": 5509,
      "äººæĸĩ": 5510,
      "åħļå§Ķä¹¦è®°": 5511,
      "42": 5512,
      "äºı": 5513,
      "çĶŁçĲĨ": 5514,
      "çģ«çģ¾": 5515,
      "ä¿±": 5516,
      "ä¸įå¿ĺ": 5517,
      "æ°´æ³¥": 5518,
      "æĺİæĺŁ": 5519,
      "èª¿": 5520,
      "éĿ¢åīį": 5521,
      "éĶĢéĩı": 5522,
      "éĺ´éģĵ": 5523,
      "åĪ°è¾¾": 5524,
      "ä»¬çļĦ": 5525,
      "åĳ³éģĵ": 5526,
      "ä¼ª": 5527,
      "çĤİçĹĩ": 5528,
      "æīĩ": 5529,
      "æĻĤéĸĵ": 5530,
      "å¹½": 5531,
      "å¾Īé«ĺ": 5532,
      "æĢ§å¥½": 5533,
      "äºĶè¡ĮåĪĨæŀĲ": 5534,
      "ä¸ĢçĶŁ": 5535,
      "åįģäºĶ": 5536,
      "å²³": 5537,
      "æĬ¼": 5538,
      "æīĵåĩ»": 5539,
      "66": 5540,
      "æĽ¿ä»£": 5541,
      "ĠâĢľ": 5542,
      "ä¹Łä¸įä¼ļ": 5543,
      "éļ¾é¢ĺ": 5544,
      "çļĦè´¨éĩı": 5545,
      "å±ĢéĿ¢": 5546,
      "æ¾³å¤§åĪ©": 5547,
      "BA": 5548,
      "çļĦç¤¾ä¼ļ": 5549,
      "çĶŁæ®ĸ": 5550,
      "æĴ¤": 5551,
      "ç¨İåĬ¡": 5552,
      "å¤ĸè§Ĥ": 5553,
      "ä¼ĺè´¨çļĦ": 5554,
      "åĤĻ": 5555,
      "èģª": 5556,
      "è§£çŃĶ": 5557,
      "æ¶Īå¤±": 5558,
      "æĭ¨": 5559,
      "æ¶Į": 5560,
      "è¡¥è´´": 5561,
      "çĶµè·¯": 5562,
      "çŃīé¢ĨåŁŁ": 5563,
      "äºĮçº§": 5564,
      "åį³å°Ĩ": 5565,
      "ç»µ": 5566,
      "è¯ģæį®": 5567,
      "èŃ°": 5568,
      "æĤ¨åħ«åŃĹ": 5569,
      "IS": 5570,
      "ä»¥å¤ĸ": 5571,
      "åĻ¨æ¢°": 5572,
      "å¤ļåĲĥ": 5573,
      "å»Ĭ": 5574,
      "å°Ŀè¯ķ": 5575,
      "èħĬ": 5576,
      "æĺ¾å¾Ĺ": 5577,
      "å®ŀåľ¨": 5578,
      "ä¼ļå¯¼èĩ´": 5579,
      "Ġ1": 5580,
      "çļĦè®¾è®¡": 5581,
      "çļĦæľºä¼ļ": 5582,
      "æĸ°é²ľ": 5583,
      "çļĦä¸ľè¥¿": 5584,
      "åĽłèĢĮ": 5585,
      "èģĮèĥ½": 5586,
      "çħ¤çĤŃ": 5587,
      "å°ıè¯´": 5588,
      "éĺ²èħĲ": 5589,
      "ãĢĤãĢį": 5590,
      "è¿Ļç±»": 5591,
      "å¤ĸåĽ½": 5592,
      "å¦»åŃĲ": 5593,
      "éħ±": 5594,
      "éľī": 5595,
      "åıł": 5596,
      "æŁ¥çľĭ": 5597,
      "çĽĹ": 5598,
      "æ¹ĺ": 5599,
      "éĹ¹": 5600,
      "çºĮ": 5601,
      "æŁı": 5602,
      "æĿĥå¨ģ": 5603,
      "ä»İä¸¥": 5604,
      "æ°®": 5605,
      "ä½¿çĶ¨å¯¿åĳ½": 5606,
      "éĥ¨çļĦ": 5607,
      "åĽŀå®¶": 5608,
      "éħįå¤ĩ": 5609,
      "çĥ¤": 5610,
      "å¥³åŃ©": 5611,
      "æĶ¶è´Ń": 5612,
      "åĩºçĶŁäºİ": 5613,
      "47": 5614,
      "ä¸Ĭæľī": 5615,
      "è¿ĩæķı": 5616,
      "ç¬¬ä¸ĥ": 5617,
      "åĪ©äºļ": 5618,
      "å·²æľī": 5619,
      "æĭĽèģĺ": 5620,
      "æī©æķ£": 5621,
      "æ¡£æ¡Ī": 5622,
      "ä¸ĺ": 5623,
      "çļĦéĢīæĭ©": 5624,
      "æī®": 5625,
      "è¦ĸ": 5626,
      "æ¶Ľ": 5627,
      "å¾Īå°ĳ": 5628,
      "å¸ķ": 5629,
      "å®ŀä¹ł": 5630,
      "è£Ŀ": 5631,
      "æķĻèĤ²çļĦ": 5632,
      "éģµå¾ª": 5633,
      "ä¸¢": 5634,
      "åľ°éĵģ": 5635,
      "æ£Ĵ": 5636,
      "å¸½": 5637,
      "é«ĺæĸ°æĬĢæľ¯": 5638,
      "éĢ»": 5639,
      "è¡Ķ": 5640,
      "ä½Ļäºº": 5641,
      "æ§½": 5642,
      "ao": 5643,
      "ä¼ļéķ¿": 5644,
      "çŃīå¾ħ": 5645,
      "çºªå½ķ": 5646,
      "56": 5647,
      "ä¸įç¦ģ": 5648,
      "è¥¿åįĹ": 5649,
      "å¥ł": 5650,
      "å¢ŀåĬłäºĨ": 5651,
      "å¿ĥèĦı": 5652,
      "è®©ä½ł": 5653,
      "å±Ģéķ¿": 5654,
      "é¦Ī": 5655,
      "åŁİåĮº": 5656,
      "éļĶç¦»": 5657,
      "éĹ´çļĦ": 5658,
      "150": 5659,
      "ä¸ºä¸Ńå¿ĥ": 5660,
      "æķ°æį®æĺ¾ç¤º": 5661,
      "æĢĿèĢĥè¿Ļä¸ªéĹ®é¢ĺ": 5662,
      "ä¹Łå°Ĩ": 5663,
      "æ´»åĬ¨çļĦ": 5664,
      "é»ĳèī²ç´ł": 5665,
      "æıĲåĪ°è¿ĩ": 5666,
      "æ·±æĢĿ": 5667,
      "å¿ĥæĥħ": 5668,
      "æ£ļ": 5669,
      "åĴ³": 5670,
      "å°±ä¸į": 5671,
      "3000": 5672,
      "å¤§å¸Ī": 5673,
      "é¢ĦæľŁ": 5674,
      "çĺ¦": 5675,
      "çĹħåĽł": 5676,
      "èĶ¡": 5677,
      "éĢĻåĢĭ": 5678,
      "åľ¨åħ¨åĽ½": 5679,
      "ç§©": 5680,
      "é£İæĻ¯": 5681,
      "æĬļ": 5682,
      "å¿ħè¦ģçļĦ": 5683,
      "æĦıéĹ´": 5684,
      "éĢīæīĭ": 5685,
      "å¿«éĢŁå¢ŀéķ¿": 5686,
      "å¸¦æĿ¥äºĨ": 5687,
      "äºĴçĽ¸": 5688,
      "è¦ģåľ¨": 5689,
      "è¾ĥé«ĺçļĦ": 5690,
      "ä¸»åĬŀ": 5691,
      "ä½¿åħ¶": 5692,
      "çĶµè§Ĩåī§": 5693,
      "æ¾³å¤§åĪ©äºļ": 5694,
      "le": 5695,
      "å¯¹å¾ħ": 5696,
      "æīĵåį°": 5697,
      "èĪŀè¹Ī": 5698,
      "å¾ģç¨ĭ": 5699,
      "éģĹäº§": 5700,
      "æĬ¥èŃ¦": 5701,
      "æ°ĳèĲ¥": 5702,
      "å£ĵ": 5703,
      "åĪĨè§£": 5704,
      "çµĦ": 5705,
      "ç´Ħ": 5706,
      "éĢłæĪĲçļĦ": 5707,
      "è©±": 5708,
      "åĲĮæľŁ": 5709,
      "éĢĢä¼ĳ": 5710,
      "44": 5711,
      "æ·®": 5712,
      "ing": 5713,
      "LED": 5714,
      "æ¨¡åŀĭ": 5715,
      "åıįèĢĮ": 5716,
      "éħ¬": 5717,
      "çĩĥçĥ§": 5718,
      "æĻ®åıĬ": 5719,
      "æ¾³éĹ¨": 5720,
      "åĲĦçķĮ": 5721,
      "68": 5722,
      "Ġå¹´": 5723,
      "åĲĮä¸Ģ": 5724,
      "æĹ¥èĩ³": 5725,
      "æ°´ä¸Ń": 5726,
      "æ¼Ķåĩº": 5727,
      "é²ľæĺİ": 5728,
      "æ¡¥æ¢ģ": 5729,
      "éĢĬ": 5730,
      "èĪŁ": 5731,
      "ç¤¾ä¼ļçļĦ": 5732,
      "èŃ·": 5733,
      "åĿļæĮģä»¥": 5734,
      "æĺ¯æĪĳ": 5735,
      "æĺ¯ä¸įæĺ¯": 5736,
      "æ¨Ĥ": 5737,
      "é¥®æĸĻ": 5738,
      "èĦĨ": 5739,
      "æĽĿ": 5740,
      "çļĦäººçĶŁ": 5741,
      "åıĳåĩº": 5742,
      "å¸ĤæĶ¿åºľ": 5743,
      "å±ĤéĿ¢": 5744,
      "éĩįå¤į": 5745,
      "å»ºéĢł": 5746,
      "æķĻæĿĲ": 5747,
      "åŃ¦æł¡çļĦ": 5748,
      "æĲħ": 5749,
      "å³¡": 5750,
      "å½ĵäºĭ": 5751,
      "ç§©åºı": 5752,
      "æĶ¶åĪ°": 5753,
      "åıĤèµĽ": 5754,
      "å¨ľ": 5755,
      "æĽ¾ç»ıæıĲåĪ°è¿ĩ": 5756,
      "ä¼Łå¤§å¤įåħ´": 5757,
      "å®ĮæĪĲäºĨ": 5758,
      "è¯Ħè®º": 5759,
      "æŁĲç§į": 5760,
      "çĭ¬çī¹çļĦ": 5761,
      "éª¤": 5762,
      "çĶŁäº§çº¿": 5763,
      "å¤ªå¤ļ": 5764,
      "ä¸Ńåħ¨ä¼ļ": 5765,
      "èĳĽ": 5766,
      "èĳ±": 5767,
      "ang": 5768,
      "ä¼ļåĩºçİ°": 5769,
      "ä¾Ŀèµĸ": 5770,
      "å¾®çĶŁçī©": 5771,
      "éĽ£": 5772,
      "åĤħ": 5773,
      "è¿ĩçļĦ": 5774,
      "è½ī": 5775,
      "åħħè¶³": 5776,
      "çİ°åľ¨çļĦ": 5777,
      "åīµ": 5778,
      "å·¥ä½ľèĢħ": 5779,
      "ç¼ºçĤ¹": 5780,
      "ä¸Ģå¸¦ä¸Ģè·¯": 5781,
      "600": 5782,
      "æķ´æ²»": 5783,
      "æĹħè¡Į": 5784,
      "ç¨»": 5785,
      "åľ¨å¤§": 5786,
      "æĸ¹çļĦ": 5787,
      "ä¸įåĪ©": 5788,
      "æĢ¨": 5789,
      "åĲĮæĹ¶ä¹Ł": 5790,
      "è¥¿åĮĹ": 5791,
      "éĤ£æł·": 5792,
      "åį¸": 5793,
      "äººå¿ĥ": 5794,
      "5000": 5795,
      "å½¢çĬ¶": 5796,
      "æ¯ıæĹ¥": 5797,
      "77": 5798,
      "åħ¬æ°ĳ": 5799,
      "èĪ°": 5800,
      "å¤§äºİ": 5801,
      "ç»ĻäºĨ": 5802,
      "æīŃ": 5803,
      "åįıä½ľ": 5804,
      "å®ŀä½ĵ": 5805,
      "å±±ä¸ľçľģ": 5806,
      "è¯¸å¤ļ": 5807,
      "ä¼łéĢĴ": 5808,
      "èĬĤçľģ": 5809,
      "çĶŁåĬ¨": 5810,
      "å¥Ī": 5811,
      "æĪĳæĥ³": 5812,
      "åİĨåı²ä¸Ĭ": 5813,
      "å¯¹æİ¥": 5814,
      "æĬĢå·§": 5815,
      "ç¥Ń": 5816,
      "æµģéĢļ": 5817,
      "ä¸įæĸŃæıĲé«ĺ": 5818,
      "ä¾¨": 5819,
      "æ³ķå®ļ": 5820,
      "åĪ¶åĨ·": 5821,
      "ç¤¾äº¤": 5822,
      "è½¬æį¢": 5823,
      "è¨±": 5824,
      "è¯ĬçĸĹ": 5825,
      "æĢ»éĥ¨": 5826,
      "çĻ¼å±ķ": 5827,
      "çļĦåħ³ç³»": 5828,
      "åĦĴ": 5829,
      "ä¾¿æĺ¯": 5830,
      "çļĦè¿ĩç¨ĭ": 5831,
      "çļĦæķħäºĭ": 5832,
      "ç¿¼": 5833,
      "ç³Ĭ": 5834,
      "è¯Ħå®¡": 5835,
      "åįłæ¯Ķ": 5836,
      "æłĩåĩĨåĮĸ": 5837,
      "ãĢĤãĢĤ": 5838,
      "ä»İä¸ļ": 5839,
      "åĪĿæŃ¥": 5840,
      "æĮĩç¤º": 5841,
      "åĶ®åĲİæľįåĬ¡": 5842,
      "120": 5843,
      "äººåĴĮ": 5844,
      "åĲĦåĽ½": 5845,
      "è´Łæĭħ": 5846,
      "çĲĨçĶ±": 5847,
      "åĨ²çªģ": 5848,
      "å¯¨": 5849,
      "43": 5850,
      "éĴ¢ç»ĵæŀĦ": 5851,
      "åŃ£èĬĤ": 5852,
      "åħļçļĦåįģä¹Ŀ": 5853,
      "ç»ıè´¹": 5854,
      "çļĦåıĺåĮĸ": 5855,
      "çŃīå¤ļ": 5856,
      "åĪļåĪļ": 5857,
      "èµĲ": 5858,
      "å¹³ç¨³": 5859,
      "åįĵè¶Ĭ": 5860,
      "éģ©": 5861,
      "æ¸ĹéĢı": 5862,
      "æķĳæı´": 5863,
      "äººåĬĽèµĦæºĲ": 5864,
      "æĬ¥èĢĥ": 5865,
      "çģ¾å®³": 5866,
      "çļĦçĽ®æłĩ": 5867,
      "æĪĲä¸ºäºĨ": 5868,
      "è½¨éģĵ": 5869,
      "æŀ¢": 5870,
      "çľ¾": 5871,
      "åħ¬åĬ¡": 5872,
      "çİĦ": 5873,
      "åĨįçĶŁ": 5874,
      "æį®æĤī": 5875,
      "äº§èĥ½": 5876,
      "æĪĳä»¬åı¯ä»¥": 5877,
      "2006": 5878,
      "çĻĤ": 5879,
      "åıĺå½¢": 5880,
      "æĬĬæĪĳä»¬": 5881,
      "ä¼łæŁĵ": 5882,
      "è§Ĥçľĭ": 5883,
      "ä¹¾": 5884,
      "å¯¹åħ¶": 5885,
      "ç²¾å¿ĥ": 5886,
      "ä¸Ĭå¹´": 5887,
      "èĬ¬": 5888,
      "è®²è¿°": 5889,
      "è¦º": 5890,
      "æĹ¶å°ļ": 5891,
      "å¤ĸçķĮ": 5892,
      "æľŁéĻĲ": 5893,
      "æĪ¿åŃĲ": 5894,
      "æĥ©": 5895,
      "ä¸¸": 5896,
      "ä¸įåľ¨": 5897,
      "å·´è¥¿": 5898,
      "èĹ¥": 5899,
      "æį®äºĨè§£": 5900,
      "èģĮåĬ¡": 5901,
      "çļĦçĽ®çļĦ": 5902,
      "éĢļæĬ¥": 5903,
      "èĬ½": 5904,
      "åĬŀäºĭ": 5905,
      "èķ´": 5906,
      "ä¸»åľº": 5907,
      "çļĦè¡Įä¸º": 5908,
      "ä¸»æ¼Ķ": 5909,
      "æ°´åĪĨ": 5910,
      "çĽĳå¯Ł": 5911,
      "éĴł": 5912,
      "è¾ĵåĩº": 5913,
      "åİŁæľ¬": 5914,
      "é£ŀæľº": 5915,
      "ä¸ĭè½½": 5916,
      "çŃĴ": 5917,
      "çķı": 5918,
      "éĲ": 5919,
      "è¯Ī": 5920,
      "åħ¥åı£": 5921,
      "ä¸įåıĹ": 5922,
      "è¾¦": 5923,
      "è¶ħè¶Ĭ": 5924,
      "et": 5925,
      "è¦ģæĬĬ": 5926,
      "å¥½å¤Ħ": 5927,
      "å¤ļå¹´æĿ¥": 5928,
      "å°ıåĮº": 5929,
      "çķĻä¸ĭ": 5930,
      "çŃĶæ¡Ī": 5931,
      "åĭĺ": 5932,
      "ç¢º": 5933,
      "å¿½è§Ĩ": 5934,
      "æľ¬è´¨": 5935,
      ":ãĢĮ": 5936,
      "å¤ļæķ°": 5937,
      "éŁ¦": 5938,
      "è¯¾é¢ĺ": 5939,
      "ç§»æ¤į": 5940,
      "æĢ»é¢Ŀ": 5941,
      "åİĺç±³": 5942,
      "åľĸ": 5943,
      "èĢĮæĪĲ": 5944,
      "éĢıéľ²": 5945,
      "æĳĦå½±": 5946,
      "çľŁç©º": 5947,
      "ä¹ĭæīĢä»¥": 5948,
      "éĺŁåĳĺ": 5949,
      "åįıåķĨ": 5950,
      "åŃĺåĤ¨": 5951,
      "åħļåĳĺå¹²éĥ¨": 5952,
      "å¾ħéģĩ": 5953,
      "åľĺ": 5954,
      "ç§ĳåŃ¦æĬĢæľ¯": 5955,
      "èĥ½åĬĽåĴĮ": 5956,
      "æ¨Ļ": 5957,
      "çľĭçĿĢ": 5958,
      "ç¢§": 5959,
      "åº§è°Ī": 5960,
      "åĨħèĴĻåı¤": 5961,
      "æ±°": 5962,
      "ç§įåŃĲ": 5963,
      "é»ı": 5964,
      "æĢ»å±Ģ": 5965,
      "ç®¡çĲĨä½ĵç³»": 5966,
      "ç®ĢåįķçļĦ": 5967,
      "æľįåĭĻ": 5968,
      "ä¼ĺå¼Ĥ": 5969,
      "å¹´åīį": 5970,
      "èµ°è¿Ľ": 5971,
      "æķ£çĥŃ": 5972,
      "èħ»": 5973,
      "æİĪäºĪ": 5974,
      "å½ĵå¤©": 5975,
      "æľīå¤ļ": 5976,
      "è¿Ļä¸ĢçĤ¹": 5977,
      "åĲĮäºĭ": 5978,
      "ä¿ĿçķĻ": 5979,
      "éĥĳå·ŀ": 5980,
      "æııè¿°": 5981,
      "çļĦåŃ¦ä¹ł": 5982,
      "ä¸ĵä¸ļæĬĢæľ¯": 5983,
      "å¹³çŃī": 5984,
      "åı£èħĶ": 5985,
      "å¡ĺ": 5986,
      "çģ£": 5987,
      "æĥħèĬĤ": 5988,
      "è¿ĽèĢĮ": 5989,
      "æ»ŀ": 5990,
      "æĵļ": 5991,
      "éĩįè¦ģçļĦæĺ¯": 5992,
      "è®¾æľī": 5993,
      "é½Ĳåħ¨": 5994,
      "æ³»": 5995,
      "2007": 5996,
      "ç¤¾ä¼ļä¸»ä¹īçİ°ä»£åĮĸ": 5997,
      "çĶĺèĤĥ": 5998,
      "æ¶µçĽĸ": 5999,
      "âĸ": 6000,
      "å¸¦åĪ°äºĨ": 6001,
      "åħ½": 6002,
      "åıĳçĶŁäºĨ": 6003,
      "ä¸ªä½ĵ": 6004,
      "æ¢¨": 6005,
      "å¥½åĥı": 6006,
      "åĩıèĤ¥": 6007,
      "æįŁåĿı": 6008,
      "ä¸Īå¤«": 6009,
      "åı¹": 6010,
      "æĺ¯æĪĳä»¬": 6011,
      "ä¸ºæŃ¤": 6012,
      "åİŁæĿ¥": 6013,
      "é£ĺ": 6014,
      "èĥİåĦ¿": 6015,
      "æ¬§åĨł": 6016,
      "å®¶å±ħ": 6017,
      "è¿ĺæ²¡æľī": 6018,
      "ç®¡çĲĨçļĦ": 6019,
      "æ¼ł": 6020,
      "äºīåıĸ": 6021,
      "æĪĲç«ĭäºİ": 6022,
      "çī©æĸĻ": 6023,
      "è¢«ç§°ä¸º": 6024,
      "èĨ¨": 6025,
      "41": 6026,
      "éģ£": 6027,
      "åĨħå¿ĥ": 6028,
      "éħµ": 6029,
      "æī¿åıĹ": 6030,
      "çĶµç¼Ĩ": 6031,
      "é¥°æ¼Ķ": 6032,
      "æĮĸæİĺ": 6033,
      "æ°Ł": 6034,
      "ä»¶äºĭ": 6035,
      "ä¸įä¸Ģæł·": 6036,
      "æĪĳåľ¨": 6037,
      "åįģä¸Ģ": 6038,
      "ç¨İæĶ¶": 6039,
      "ä¸Ĭä¸Ģ": 6040,
      "å®¶æĹı": 6041,
      "åħ¨å¹´": 6042,
      "ç³ķ": 6043,
      "ä¸İæŃ¤": 6044,
      "å®¹éĩı": 6045,
      "çľī": 6046,
      "li": 6047,
      "åĨħåĪĨæ³Į": 6048,
      "å»ºè®¾åĴĮ": 6049,
      "åħ¹": 6050,
      "éĢļçĶ¨": 6051,
      "åĪĿæľŁ": 6052,
      "æīĭç»Ń": 6053,
      "åĲ¸éĻĦ": 6054,
      "å¼µ": 6055,
      "æĶ¾æĿ¾": 6056,
      "ä¸Ģä½ĵçļĦ": 6057,
      "åĵįåºĶ": 6058,
      "zh": 6059,
      "èŃī": 6060,
      "ä¾ĽåºĶéĵ¾": 6061,
      "çļĦåºĶçĶ¨": 6062,
      "åħĴ": 6063,
      "ç©´": 6064,
      "æīĵçł´": 6065,
      "æ±¡æ³¥": 6066,
      "ä¾Ŀçħ§": 6067,
      "æĿ¡ä»¶ä¸ĭ": 6068,
      "åĬ¨çĶ»": 6069,
      "å¦¥": 6070,
      "åĬ©æĶ»": 6071,
      "å¤ıåŃ£": 6072,
      "èĮĤ": 6073,
      "åıĤæķ°": 6074,
      "åķıé¡Į": 6075,
      "éĺĲ": 6076,
      "ä¸¤åĽ½": 6077,
      "ç´«å¤ĸ": 6078,
      "å®Įç¾İ": 6079,
      "åĴĮæĬĢæľ¯": 6080,
      "çĹĴ": 6081,
      "æŃ¦åĻ¨": 6082,
      "é¼İ": 6083,
      "å¸¸åĬ¡": 6084,
      "ä»Ķç»Ĩ": 6085,
      "èµĦåĬ©": 6086,
      "èĲ§": 6087,
      "æĶ¶èĹı": 6088,
      "çħ§æĺİ": 6089,
      "æ°´å¹³çļĦ": 6090,
      "æĥ§": 6091,
      "å®¢æĪ·çļĦ": 6092,
      "å¼ºåĪ¶": 6093,
      "èģļæ°¨": 6094,
      "ç¨³å®ļæĢ§": 6095,
      "èº«å¿ĥ": 6096,
      "ä¸¤æ¬¡": 6097,
      "ä»¤æĪĳ": 6098,
      "è¿Ŀè§Ħ": 6099,
      "æĺİæĺ¾çļĦ": 6100,
      "åĻ¨å®ĺ": 6101,
      "å¿ĥæĢģ": 6102,
      "é¾Ļå¤´": 6103,
      "è¯±åıĳ": 6104,
      "éĢļè®¯": 6105,
      "æľĢä¸º": 6106,
      "äº¤æį¢": 6107,
      "æīįä¼ļ": 6108,
      "æĪĺèĥľ": 6109,
      "åĦª": 6110,
      "æľīæķĪåľ°": 6111,
      "æĲľç´¢": 6112,
      "æĶ»åĩ»": 6113,
      "æ²³åįĹçľģ": 6114,
      "app": 6115,
      "åĩºè¡Į": 6116,
      "ä½İæ¸©": 6117,
      "ä¸ĢèĪ¬æĿ¥è¯´": 6118,
      "åı¯ä»¥éĢļè¿ĩ": 6119,
      "ç¶Ń": 6120,
      "å¤§éĻĨ": 6121,
      "æ¸ħçĲĨ": 6122,
      "è¯Ħä¸º": 6123,
      "ä¸Ĭæµ·å¸Ĥ": 6124,
      "åľ¨ä½¿çĶ¨": 6125,
      "æ¸Ķ": 6126,
      "è®¿éĹ®": 6127,
      "åŃ¦å®¶": 6128,
      "éķ¿æ²Ļ": 6129,
      "éĨĽ": 6130,
      "ä¸įä»ħä»ħ": 6131,
      "çŃīéĹ®é¢ĺ": 6132,
      "å¼Ģå¹ķ": 6133,
      "æĸ°èĥ½æºĲæ±½è½¦": 6134,
      "åıĶ": 6135,
      "å¿ĥä¸Ń": 6136,
      "æĿĲè´¨": 6137,
      "èĭıå·ŀ": 6138,
      "çī©èµĦ": 6139,
      "åĨĽéĺŁ": 6140,
      "ä¸Ńåįİæ°ĳæĹıä¼Łå¤§å¤įåħ´": 6141,
      "ç»ıæµİç¤¾ä¼ļåıĳå±ķ": 6142,
      "ä¼łç»ŁæĸĩåĮĸ": 6143
    },
    "merges": [
      [
        "ä",
        "¸"
      ],
      [
        "ã",
        "Ģ"
      ],
      [
        "ç",
        "ļ"
      ],
      [
        "çļ",
        "Ħ"
      ],
      [
        "ä",
        "º"
      ],
      [
        "ãĢ",
        "Ĥ"
      ],
      [
        "æ",
        "ľ"
      ],
      [
        "å",
        "ı"
      ],
      [
        "å",
        "ħ"
      ],
      [
        "ä",
        "»"
      ],
      [
        "ãĢ",
        "ģ"
      ],
      [
        "å",
        "¤"
      ],
      [
        "å",
        "®"
      ],
      [
        "å",
        "Ī"
      ],
      [
        "ä",
        "½"
      ],
      [
        "è",
        "¿"
      ],
      [
        "ç",
        "Ķ"
      ],
      [
        "å",
        "ľ"
      ],
      [
        "å",
        "Ĳ"
      ],
      [
        "å",
        "Ĭ"
      ],
      [
        "æ",
        "ĺ"
      ],
      [
        "ç",
        "»"
      ],
      [
        "å",
        "Ľ"
      ],
      [
        "æ",
        "Ī"
      ],
      [
        "æ",
        "ĸ"
      ],
      [
        "ä",
        "¹"
      ],
      [
        "ä",
        "¼"
      ],
      [
        "ä¸",
        "Ģ"
      ],
      [
        "å",
        "¹"
      ],
      [
        "å",
        "°"
      ],
      [
        "å",
        "Ń"
      ],
      [
        "æĺ",
        "¯"
      ],
      [
        "è",
        "®"
      ],
      [
        "æ",
        "Ĺ"
      ],
      [
        "â",
        "Ģ"
      ],
      [
        "å",
        "į"
      ],
      [
        "è",
        "¯"
      ],
      [
        "å",
        "·"
      ],
      [
        "æľ",
        "ī"
      ],
      [
        "åľ",
        "¨"
      ],
      [
        "é",
        "ĩ"
      ],
      [
        "æ",
        "Ŀ"
      ],
      [
        "äº",
        "º"
      ],
      [
        "å",
        "Į"
      ],
      [
        "ä¸",
        "į"
      ],
      [
        "å",
        "¸"
      ],
      [
        "å",
        "º"
      ],
      [
        "ä¸",
        "Ń"
      ],
      [
        "å",
        "¼"
      ],
      [
        "æ",
        "ī"
      ],
      [
        "é",
        "Ģ"
      ],
      [
        "å",
        "Ĵ"
      ],
      [
        "è",
        "¡"
      ],
      [
        "å",
        "¾"
      ],
      [
        "å",
        "Ĩ"
      ],
      [
        "è",
        "Ģ"
      ],
      [
        "å",
        "¯"
      ],
      [
        "åĴ",
        "Į"
      ],
      [
        "å",
        "ĩ"
      ],
      [
        "äº",
        "Ĩ"
      ],
      [
        "æ",
        "ķ"
      ],
      [
        "å",
        "±"
      ],
      [
        "ĥ",
        "½"
      ],
      [
        "æ",
        "Ģ"
      ],
      [
        "å¤",
        "§"
      ],
      [
        "ç",
        "Ľ"
      ],
      [
        "æ",
        "Ĭ"
      ],
      [
        "è",
        "´"
      ],
      [
        "æ",
        "°"
      ],
      [
        "ä¸",
        "º"
      ],
      [
        "ç",
        "§"
      ],
      [
        "æ",
        "ł"
      ],
      [
        "åĽ",
        "½"
      ],
      [
        "è",
        "§"
      ],
      [
        "çĶ",
        "Ł"
      ],
      [
        "ç",
        "İ"
      ],
      [
        "ä¸",
        "ļ"
      ],
      [
        "è",
        "µ"
      ],
      [
        "è",
        "¦"
      ],
      [
        "ç",
        "ī"
      ],
      [
        "ä»",
        "¥"
      ],
      [
        "å",
        "¥"
      ],
      [
        "æ",
        "Ķ"
      ],
      [
        "é",
        "Ļ"
      ],
      [
        "å",
        "¿"
      ],
      [
        "è¦",
        "ģ"
      ],
      [
        "åŃ",
        "¦"
      ],
      [
        "é",
        "Ŀ"
      ],
      [
        "åı",
        "ĳ"
      ],
      [
        "è",
        "ĩ"
      ],
      [
        "å¹",
        "´"
      ],
      [
        "ä¼",
        "ļ"
      ],
      [
        "æ",
        "Ń"
      ],
      [
        "å",
        "İ"
      ],
      [
        "çĶ",
        "¨"
      ],
      [
        "æ",
        "³"
      ],
      [
        "ç",
        "Ń"
      ],
      [
        "å",
        "½"
      ],
      [
        "ç",
        "Ĳ"
      ],
      [
        "ä",
        "¿"
      ],
      [
        "è",
        "ĥ½"
      ],
      [
        "æ",
        "²"
      ],
      [
        "å·",
        "¥"
      ],
      [
        "é",
        "Ĺ"
      ],
      [
        "ç",
        "º"
      ],
      [
        "ä¸",
        "Ĭ"
      ],
      [
        "ä½",
        "ľ"
      ],
      [
        "å",
        "ĳ"
      ],
      [
        "æ",
        "İ"
      ],
      [
        "æ",
        "ŀ"
      ],
      [
        "æ",
        "µ"
      ],
      [
        "æĹ",
        "¶"
      ],
      [
        "ä¸",
        "ª"
      ],
      [
        "âĢ",
        "ľ"
      ],
      [
        "âĢ",
        "Ŀ"
      ],
      [
        "æĪ",
        "Ĳ"
      ],
      [
        "è¡",
        "Į"
      ],
      [
        "å",
        "ĵ"
      ],
      [
        "è¿",
        "Ļ"
      ],
      [
        "åı",
        "¯"
      ],
      [
        "é",
        "¢"
      ],
      [
        "æĪ",
        "ĳ"
      ],
      [
        "åĪ",
        "°"
      ],
      [
        "å¯",
        "¹"
      ],
      [
        "æ",
        "¯"
      ],
      [
        "æ",
        "Į"
      ],
      [
        "åĩ",
        "º"
      ],
      [
        "å",
        "Ł"
      ],
      [
        "è",
        "¾"
      ],
      [
        "æ",
        "ĥ"
      ],
      [
        "é",
        "«"
      ],
      [
        "é",
        "ĺ"
      ],
      [
        "äº",
        "İ"
      ],
      [
        "å®",
        "¶"
      ],
      [
        "çĲ",
        "Ĩ"
      ],
      [
        "ç",
        "ľ"
      ],
      [
        "è",
        "Ĥ"
      ],
      [
        "å",
        "ī"
      ],
      [
        "é«",
        "ĺ"
      ],
      [
        "æ",
        "±"
      ],
      [
        "äº",
        "§"
      ],
      [
        "æĿ",
        "¥"
      ],
      [
        "åľ",
        "°"
      ],
      [
        "å¤",
        "ļ"
      ],
      [
        "åĮ",
        "ĸ"
      ],
      [
        "çŃ",
        "ī"
      ],
      [
        "æ",
        "Ħ"
      ],
      [
        "æ",
        "ĭ"
      ],
      [
        "æĸ",
        "¹"
      ],
      [
        "åĪ",
        "Ĩ"
      ],
      [
        "è",
        "½"
      ],
      [
        "åĬ",
        "Ľ"
      ],
      [
        "åħ",
        "¨"
      ],
      [
        "è¿",
        "Ľ"
      ],
      [
        "é",
        "ģ"
      ],
      [
        "èĩ",
        "ª"
      ],
      [
        "æĸ",
        "°"
      ],
      [
        "ä½",
        "ĵ"
      ],
      [
        "ç",
        "®"
      ],
      [
        "æĢ",
        "§"
      ],
      [
        "ä",
        "¾"
      ],
      [
        "å",
        "»"
      ],
      [
        "åĬ",
        "¨"
      ],
      [
        "æ",
        "´"
      ],
      [
        "ç",
        "«"
      ],
      [
        "å®",
        "ŀ"
      ],
      [
        "åħ",
        "¬"
      ],
      [
        "ç»",
        "ı"
      ],
      [
        "ä¹",
        "Ł"
      ],
      [
        "æ",
        "¸"
      ],
      [
        "è¿",
        "ĩ"
      ],
      [
        "é",
        "ĥ"
      ],
      [
        "çİ",
        "°"
      ],
      [
        "ä»",
        "¬"
      ],
      [
        "å",
        "¦"
      ],
      [
        "ç",
        "¨"
      ],
      [
        "å°",
        "±"
      ],
      [
        "å±",
        "ķ"
      ],
      [
        "åĲ",
        "Ī"
      ],
      [
        "åĲ",
        "İ"
      ],
      [
        "é",
        "ķ"
      ],
      [
        "ä¸",
        "»"
      ],
      [
        "ç",
        "Ļ"
      ],
      [
        "å",
        "ģ"
      ],
      [
        "ä¸",
        "ĭ"
      ],
      [
        "ç",
        "Ĥ"
      ],
      [
        "æ",
        "ı"
      ],
      [
        "éĿ",
        "¢"
      ],
      [
        "éĩ",
        "į"
      ],
      [
        "æ",
        "¬"
      ],
      [
        "é",
        "£"
      ],
      [
        "æ",
        "Ľ"
      ],
      [
        "ä»",
        "ĸ"
      ],
      [
        "ç",
        "½"
      ],
      [
        "åĵ",
        "ģ"
      ],
      [
        "å®",
        "ļ"
      ],
      [
        "æľ",
        "º"
      ],
      [
        "å»",
        "º"
      ],
      [
        "éĥ",
        "¨"
      ],
      [
        "åĲ",
        "Į"
      ],
      [
        "å¥",
        "½"
      ],
      [
        "è",
        "ī"
      ],
      [
        "ä¸",
        "İ"
      ],
      [
        "åĬ",
        "ł"
      ],
      [
        "å¿",
        "ĥ"
      ],
      [
        "é",
        "¡"
      ],
      [
        "æ³",
        "ķ"
      ],
      [
        "å¸",
        "Ĥ"
      ],
      [
        "ä¹",
        "ĭ"
      ],
      [
        "è®",
        "¾"
      ],
      [
        "åº",
        "¦"
      ],
      [
        "è",
        "ģ"
      ],
      [
        "æ°",
        "´"
      ],
      [
        "èĢ",
        "Į"
      ],
      [
        "ç",
        "¤"
      ],
      [
        "å¼",
        "Ģ"
      ],
      [
        "ç",
        "Ĺ"
      ],
      [
        "é",
        "Ľ"
      ],
      [
        "åŃ",
        "Ĳ"
      ],
      [
        "åħ",
        "¶"
      ],
      [
        "æ",
        "Ļ"
      ],
      [
        "å",
        "¢"
      ],
      [
        "åĪ",
        "¶"
      ],
      [
        "æľ",
        "¬"
      ],
      [
        "èĢ",
        "ħ"
      ],
      [
        "å¾",
        "Ĺ"
      ],
      [
        "å",
        "Ģ"
      ],
      [
        "éĩ",
        "ı"
      ],
      [
        "2",
        "0"
      ],
      [
        "è",
        "¶"
      ],
      [
        "ç",
        "ĸ"
      ],
      [
        "éķ",
        "¿"
      ],
      [
        "ç",
        "¬"
      ],
      [
        "è",
        "·"
      ],
      [
        "æı",
        "Ĳ"
      ],
      [
        "ç",
        "Ł"
      ],
      [
        "çī",
        "©"
      ],
      [
        "å¦",
        "Ĥ"
      ],
      [
        "è",
        "°"
      ],
      [
        "åĬ",
        "¡"
      ],
      [
        "åħ",
        "³"
      ],
      [
        "å",
        "Ŀ"
      ],
      [
        "æī",
        "Ģ"
      ],
      [
        "ç",
        "¾"
      ],
      [
        "åı",
        "Ĭ"
      ],
      [
        "ä¿",
        "Ŀ"
      ],
      [
        "ç®",
        "¡"
      ],
      [
        "æĹ",
        "¥"
      ],
      [
        "äº",
        "ĭ"
      ],
      [
        "åī",
        "į"
      ],
      [
        "åº",
        "Ķ"
      ],
      [
        "æ",
        "¶"
      ],
      [
        "é",
        "ļ"
      ],
      [
        "æ",
        "į"
      ],
      [
        "éĢ",
        "ļ"
      ],
      [
        "çĶ",
        "µ"
      ],
      [
        "ç",
        "Ŀ"
      ],
      [
        "åĨ",
        "ħ"
      ],
      [
        "é",
        "ĥ½"
      ],
      [
        "ç",
        "³"
      ],
      [
        "æķ",
        "Ļ"
      ],
      [
        "å",
        "§"
      ],
      [
        "åľ",
        "º"
      ],
      [
        "ç",
        "ł"
      ],
      [
        "ç§",
        "į"
      ],
      [
        "è",
        "Ĭ"
      ],
      [
        "ç",
        "©"
      ],
      [
        "ç",
        "ķ"
      ],
      [
        "æľ",
        "Ī"
      ],
      [
        "ç",
        "²"
      ],
      [
        "å°",
        "ı"
      ],
      [
        "æĥ",
        "ħ"
      ],
      [
        "åĽ",
        "ł"
      ],
      [
        "æĸ",
        "ĩ"
      ],
      [
        "ç",
        "Ħ"
      ],
      [
        "ç",
        "´"
      ],
      [
        "æ",
        "Ł"
      ],
      [
        "èµ",
        "Ħ"
      ],
      [
        "åĮ",
        "º"
      ],
      [
        "å¤",
        "ĸ"
      ],
      [
        "ç¨",
        "ĭ"
      ],
      [
        "è",
        "Ĳ"
      ],
      [
        "å¹",
        "³"
      ],
      [
        "æĬ",
        "Ģ"
      ],
      [
        "æľ",
        "Ģ"
      ],
      [
        "æ°",
        "ĳ"
      ],
      [
        "ç§",
        "ĳ"
      ],
      [
        "é",
        "ħ"
      ],
      [
        "é",
        "ľ"
      ],
      [
        "æĽ",
        "´"
      ],
      [
        "åıĳ",
        "å±ķ"
      ],
      [
        "ç",
        "ĥ"
      ],
      [
        "åĳ",
        "ĺ"
      ],
      [
        "éĹ",
        "´"
      ],
      [
        "å·¥",
        "ä½ľ"
      ],
      [
        "ä½",
        "į"
      ],
      [
        "çĽ",
        "®"
      ],
      [
        "å¤",
        "©"
      ],
      [
        "çĽ",
        "¸"
      ],
      [
        "æľ",
        "¯"
      ],
      [
        "è´",
        "¨"
      ],
      [
        "æĦ",
        "ı"
      ],
      [
        "å°",
        "Ĩ"
      ],
      [
        "ä¸Ń",
        "åĽ½"
      ],
      [
        "æľ",
        "Ł"
      ],
      [
        "åħ",
        "¥"
      ],
      [
        "å¸",
        "¸"
      ],
      [
        "æ¯",
        "Ķ"
      ],
      [
        "ç",
        "¡"
      ],
      [
        "å®",
        "ī"
      ],
      [
        "ç¬",
        "¬"
      ],
      [
        "çĤ",
        "¹"
      ],
      [
        "ç³",
        "»"
      ],
      [
        "ä½",
        "¿"
      ],
      [
        "Ĥ",
        "£"
      ],
      [
        "ä»",
        "£"
      ],
      [
        "è¡",
        "¨"
      ],
      [
        "å¼",
        "º"
      ],
      [
        "æĶ",
        "¿"
      ],
      [
        "è¯",
        "´"
      ],
      [
        "ç",
        "±"
      ],
      [
        "å¾",
        "Ī"
      ],
      [
        "è",
        "ĥ"
      ],
      [
        "ä¸",
        "ī"
      ],
      [
        "é",
        "Ķ"
      ],
      [
        "åı",
        "¸"
      ],
      [
        "æ",
        "·"
      ],
      [
        "å½",
        "ĵ"
      ],
      [
        "ä¼",
        "ģ"
      ],
      [
        "éģ",
        "ĵ"
      ],
      [
        "è¿",
        "ĺ"
      ],
      [
        "æ´",
        "»"
      ],
      [
        "æŀ",
        "ľ"
      ],
      [
        "çī",
        "¹"
      ],
      [
        "éĩ",
        "ĳ"
      ],
      [
        "ä»",
        "İ"
      ],
      [
        "å¹",
        "¶"
      ],
      [
        "æ²",
        "»"
      ],
      [
        "èµ",
        "·"
      ],
      [
        "åı¯",
        "ä»¥"
      ],
      [
        "è",
        "į"
      ],
      [
        "æ",
        "ģ"
      ],
      [
        "æĺ",
        "İ"
      ],
      [
        "æ¬",
        "¡"
      ],
      [
        "è",
        "Ī"
      ],
      [
        "åĪ",
        "©"
      ],
      [
        "ç",
        "¥"
      ],
      [
        "æŃ",
        "¤"
      ],
      [
        "çĦ",
        "¶"
      ],
      [
        "çĿ",
        "Ģ"
      ],
      [
        "åŁ",
        "º"
      ],
      [
        "ä¿",
        "¡"
      ],
      [
        "ãĢ",
        "ĭ"
      ],
      [
        "ä½",
        "Ĩ"
      ],
      [
        "ãĢ",
        "Ĭ"
      ],
      [
        "ä¸",
        "ĵ"
      ],
      [
        "åĲ",
        "Ħ"
      ],
      [
        "ä¼ģ",
        "ä¸ļ"
      ],
      [
        "æĪĳ",
        "ä»¬"
      ],
      [
        "æĪ",
        "ĸ"
      ],
      [
        "åħ¬",
        "åı¸"
      ],
      [
        "åĲ",
        "į"
      ],
      [
        "é",
        "Ĵ"
      ],
      [
        "æķ",
        "°"
      ],
      [
        "é",
        "ĵ"
      ],
      [
        "è®",
        "¡"
      ],
      [
        "éĻ",
        "¢"
      ],
      [
        "æľ",
        "į"
      ],
      [
        "æĮ",
        "ģ"
      ],
      [
        "é£",
        "İ"
      ],
      [
        "ç¾",
        "İ"
      ],
      [
        "çĹ",
        "ħ"
      ],
      [
        "æĹ",
        "ł"
      ],
      [
        "äº",
        "Ľ"
      ],
      [
        "ä¸Ģ",
        "ä¸ª"
      ],
      [
        "è§",
        "Ħ"
      ],
      [
        "å¼",
        "ı"
      ],
      [
        "è",
        "ĭ"
      ],
      [
        "æŃ",
        "£"
      ],
      [
        "åħ",
        "ļ"
      ],
      [
        "ç",
        "ģ"
      ],
      [
        "è§",
        "£"
      ],
      [
        "èĤ",
        "²"
      ],
      [
        "ä½",
        "ł"
      ],
      [
        "ç»",
        "ĵ"
      ],
      [
        "é",
        "¦"
      ],
      [
        "è",
        "¢"
      ],
      [
        "ç",
        "¼"
      ],
      [
        "éĢ",
        "ł"
      ],
      [
        "å",
        "ķ"
      ],
      [
        "è",
        "º"
      ],
      [
        "å¯",
        "¼"
      ],
      [
        "è",
        "£"
      ],
      [
        "éľ",
        "Ģ"
      ],
      [
        "æ",
        "º"
      ],
      [
        "æ",
        "¡"
      ],
      [
        "å",
        "£"
      ],
      [
        "äº",
        "Į"
      ],
      [
        "èī",
        "²"
      ],
      [
        "ä»",
        "»"
      ],
      [
        "å",
        "ĸ"
      ],
      [
        "ç»",
        "Ł"
      ],
      [
        "å",
        "ŀ"
      ],
      [
        "ç¤",
        "¾"
      ],
      [
        "é¢",
        "ĺ"
      ],
      [
        "åģ",
        "ļ"
      ],
      [
        "æ±",
        "Ĥ"
      ],
      [
        "åį",
        "ģ"
      ],
      [
        "åħ",
        "·"
      ],
      [
        "è",
        "Ħ"
      ],
      [
        "ç",
        "Ī"
      ],
      [
        "æ°",
        "Ķ"
      ],
      [
        "åĮ",
        "»"
      ],
      [
        "çł",
        "Ķ"
      ],
      [
        "åĪ",
        "Ľ"
      ],
      [
        "èº",
        "«"
      ],
      [
        "0",
        "0"
      ],
      [
        "çľ",
        "ĭ"
      ],
      [
        "éĩ",
        "Į"
      ],
      [
        "ç«",
        "ĭ"
      ],
      [
        "åħ",
        "ĥ"
      ],
      [
        "å¢",
        "ŀ"
      ],
      [
        "é¡",
        "¹"
      ],
      [
        "ç",
        "¦"
      ],
      [
        "å¤",
        "Ħ"
      ],
      [
        "æµ",
        "ģ"
      ],
      [
        "æį",
        "®"
      ],
      [
        "æĦ",
        "Ł"
      ],
      [
        "æķ",
        "Ī"
      ],
      [
        "æł",
        "ĩ"
      ],
      [
        "è¿",
        "Ĳ"
      ],
      [
        "ç½",
        "ĳ"
      ],
      [
        "çĶ",
        "±"
      ],
      [
        "æĥ",
        "³"
      ],
      [
        "æİ",
        "¥"
      ],
      [
        "è½",
        "¦"
      ],
      [
        "ç²",
        "¾"
      ],
      [
        "æł",
        "¡"
      ],
      [
        "éĹ",
        "®"
      ],
      [
        "ç»",
        "Ħ"
      ],
      [
        "æī",
        "ĭ"
      ],
      [
        "è",
        "Į"
      ],
      [
        "ä¹",
        "Ī"
      ],
      [
        "æł",
        "·"
      ],
      [
        "åİ",
        "»"
      ],
      [
        "è¢",
        "«"
      ],
      [
        "ä»",
        "¶"
      ],
      [
        "éĹ",
        "¨"
      ],
      [
        "åĲ",
        "ĳ"
      ],
      [
        "å·",
        "±"
      ],
      [
        "é",
        "ª"
      ],
      [
        "ä¼",
        "ł"
      ],
      [
        "æĬĢ",
        "æľ¯"
      ],
      [
        "åİ",
        "Ł"
      ],
      [
        "çĻ",
        "½"
      ],
      [
        "æĸ",
        "Ļ"
      ],
      [
        "æ",
        "»"
      ],
      [
        "æĢ",
        "»"
      ],
      [
        "å·",
        "²"
      ],
      [
        "åı",
        "Ĺ"
      ],
      [
        "é¢",
        "Ĩ"
      ],
      [
        "è",
        "¥"
      ],
      [
        "æ²",
        "¡"
      ],
      [
        "çĲ",
        "ĥ"
      ],
      [
        "äº",
        "¤"
      ],
      [
        "è·",
        "¯"
      ],
      [
        "å¤",
        "ĩ"
      ],
      [
        "åķ",
        "Ĩ"
      ],
      [
        "èĩª",
        "å·±"
      ],
      [
        "çº",
        "§"
      ],
      [
        "è¥",
        "¿"
      ],
      [
        "åħ",
        "±"
      ],
      [
        "å½",
        "¢"
      ],
      [
        "å½",
        "±"
      ],
      [
        "æµ",
        "·"
      ],
      [
        "æł",
        "¼"
      ],
      [
        "çİ",
        "¯"
      ],
      [
        "çŁ",
        "¥"
      ],
      [
        "åŀ",
        "ĭ"
      ],
      [
        "é",
        "»"
      ],
      [
        "æľį",
        "åĬ¡"
      ],
      [
        "ä¸",
        "¤"
      ],
      [
        "çľ",
        "ģ"
      ],
      [
        "ç®¡",
        "çĲĨ"
      ],
      [
        "å",
        "Ļ"
      ],
      [
        "æ",
        "£"
      ],
      [
        "åı",
        "ĺ"
      ],
      [
        "è¿Ľ",
        "è¡Į"
      ],
      [
        "å°",
        "ĳ"
      ],
      [
        "åį",
        "ķ"
      ],
      [
        "éĺ",
        "²"
      ],
      [
        "é",
        "©"
      ],
      [
        "ç±",
        "»"
      ],
      [
        "åĽ½",
        "å®¶"
      ],
      [
        "è°",
        "ĥ"
      ],
      [
        "åħ",
        "Ī"
      ],
      [
        "ä¼",
        "ĺ"
      ],
      [
        "æİ",
        "¨"
      ],
      [
        "æĶ",
        "¹"
      ],
      [
        "èģ",
        "Ķ"
      ],
      [
        "è",
        "İ"
      ],
      [
        "ä¸",
        "ĩ"
      ],
      [
        "éĽ",
        "Ĩ"
      ],
      [
        "ä¹",
        "ł"
      ],
      [
        "éĺ",
        "Ł"
      ],
      [
        "èĩ",
        "³"
      ],
      [
        "æ",
        "¢"
      ],
      [
        "æĶ",
        "¶"
      ],
      [
        "ä¸",
        "ĸ"
      ],
      [
        "ç¤",
        "º"
      ],
      [
        "å¹",
        "¿"
      ],
      [
        "æ·",
        "±"
      ],
      [
        "é",
        "Ĥ£"
      ],
      [
        "è",
        "Ļ"
      ],
      [
        "æŀ",
        "Ħ"
      ],
      [
        "å¸",
        "Ī"
      ],
      [
        "é£",
        "Ł"
      ],
      [
        "äº§",
        "åĵģ"
      ],
      [
        "è¾",
        "ĥ"
      ],
      [
        "æĬ",
        "¥"
      ],
      [
        "å±",
        "±"
      ],
      [
        "çĸ",
        "Ĺ"
      ],
      [
        "åı",
        "ª"
      ],
      [
        "åį",
        "Ĺ"
      ],
      [
        "æ",
        "®"
      ],
      [
        "åĻ",
        "¨"
      ],
      [
        "æº",
        "Ĳ"
      ],
      [
        "æĮ",
        "ĩ"
      ],
      [
        "åı",
        "ĸ"
      ],
      [
        "ä¹",
        "¦"
      ],
      [
        "æĸ",
        "½"
      ],
      [
        "å®",
        "Į"
      ],
      [
        "ä¾",
        "Ľ"
      ],
      [
        "æī",
        "į"
      ],
      [
        "è®",
        "¤"
      ],
      [
        "ä¸",
        "ľ"
      ],
      [
        "æĶ",
        "¾"
      ],
      [
        "åŁ",
        "İ"
      ],
      [
        "å»º",
        "è®¾"
      ],
      [
        "èĬ",
        "Ĥ"
      ],
      [
        "ç¤¾",
        "ä¼ļ"
      ],
      [
        "åı",
        "£"
      ],
      [
        "çº",
        "¿"
      ],
      [
        "èµ",
        "Ľ"
      ],
      [
        "æ³",
        "¨"
      ],
      [
        "è¾",
        "¾"
      ],
      [
        "éĢ",
        "ī"
      ],
      [
        "çĥ",
        "Ń"
      ],
      [
        "èĲ",
        "¥"
      ],
      [
        "æ",
        "¨"
      ],
      [
        "è®",
        "°"
      ],
      [
        "åĮ",
        "Ĺ"
      ],
      [
        "èĢ",
        "ĥ"
      ],
      [
        "ä»",
        "·"
      ],
      [
        "åĽ",
        "Ľ"
      ],
      [
        "èĢ",
        "ģ"
      ],
      [
        "è®",
        "©"
      ],
      [
        "æ",
        "¼"
      ],
      [
        "å¸",
        "¦"
      ],
      [
        "æĪ",
        "ĺ"
      ],
      [
        "è¿",
        "ĳ"
      ],
      [
        "éĿ",
        "ŀ"
      ],
      [
        "ç¡",
        "®"
      ],
      [
        "æĿ",
        "¡"
      ],
      [
        "å®",
        "¹"
      ],
      [
        "ç¥",
        "ŀ"
      ],
      [
        "çķ",
        "Į"
      ],
      [
        "åĩ",
        "Ĩ"
      ],
      [
        "éĹ®",
        "é¢ĺ"
      ],
      [
        "ç",
        "Ĭ"
      ],
      [
        "æķĻ",
        "èĤ²"
      ],
      [
        "è£",
        "ħ"
      ],
      [
        "åĪ",
        "«"
      ],
      [
        "è",
        "ħ"
      ],
      [
        "æĬ",
        "¤"
      ],
      [
        "è¯",
        "ģ"
      ],
      [
        "å§",
        "Ķ"
      ],
      [
        "åı",
        "°"
      ],
      [
        "åĨ",
        "³"
      ],
      [
        "åħ",
        "ī"
      ],
      [
        "æ¯",
        "ı"
      ],
      [
        "ç´",
        "ł"
      ],
      [
        "åĬ",
        "Ł"
      ],
      [
        "å",
        "²"
      ],
      [
        "çĽ",
        "´"
      ],
      [
        "ç",
        "ħ"
      ],
      [
        "äº",
        "Ķ"
      ],
      [
        "åĽ",
        "¢"
      ],
      [
        "æĺ",
        "ĵ"
      ],
      [
        "å¢",
        "ĥ"
      ],
      [
        "æµ",
        "İ"
      ],
      [
        "å¥",
        "³"
      ],
      [
        "æĢ",
        "Ŀ"
      ],
      [
        "è",
        "±"
      ],
      [
        "æķ",
        "´"
      ],
      [
        "æ²¡",
        "æľī"
      ],
      [
        "æī",
        "ĵ"
      ],
      [
        "ä½",
        "İ"
      ],
      [
        "æŃ",
        "¥"
      ],
      [
        "å",
        "Ķ"
      ],
      [
        "å±",
        "Ģ"
      ],
      [
        "æ¸",
        "ħ"
      ],
      [
        "20",
        "1"
      ],
      [
        "ä¹",
        "ī"
      ],
      [
        "æĬ",
        "Ĭ"
      ],
      [
        "æĶ",
        "¯"
      ],
      [
        "çľ",
        "Ł"
      ],
      [
        "ç©",
        "¶"
      ],
      [
        "ç©",
        "º"
      ],
      [
        "åĽ",
        "ŀ"
      ],
      [
        "è§",
        "Ĥ"
      ],
      [
        "ç»",
        "Ļ"
      ],
      [
        "åĮ",
        "ħ"
      ],
      [
        "è§",
        "Ĩ"
      ],
      [
        "åħ",
        "»"
      ],
      [
        "èģ",
        "Į"
      ],
      [
        "åĬ",
        "ŀ"
      ],
      [
        "å®",
        "ĥ"
      ],
      [
        "è´",
        "¹"
      ],
      [
        "æĪ",
        "·"
      ],
      [
        "ä½¿",
        "çĶ¨"
      ],
      [
        "æĬ",
        "ķ"
      ],
      [
        "æĿ",
        "Ĳ"
      ],
      [
        "éĻ",
        "ħ"
      ],
      [
        "æ¶",
        "Ī"
      ],
      [
        "éľĢ",
        "è¦ģ"
      ],
      [
        "çĶŁ",
        "äº§"
      ],
      [
        "å",
        "ĭ"
      ],
      [
        "å¼",
        "ķ"
      ],
      [
        "Ġ",
        ","
      ],
      [
        "å¤",
        "´"
      ],
      [
        "æģ",
        "¯"
      ],
      [
        "é",
        "¥"
      ],
      [
        "ç»ı",
        "æµİ"
      ],
      [
        "è",
        "¨"
      ],
      [
        "å¸Ĥ",
        "åľº"
      ],
      [
        "çİ",
        "ĩ"
      ],
      [
        "åĬ",
        "©"
      ],
      [
        "èį",
        "¯"
      ],
      [
        "è¯",
        "¥"
      ],
      [
        "æł",
        "¹"
      ],
      [
        "å¤",
        "į"
      ],
      [
        "ç»",
        "´"
      ],
      [
        "æŁ",
        "¥"
      ],
      [
        "ç§",
        "¯"
      ],
      [
        "åı",
        "Ĥ"
      ],
      [
        "å¿",
        "«"
      ],
      [
        "éĢļ",
        "è¿ĩ"
      ],
      [
        "è¯",
        "Ĩ"
      ],
      [
        "éĢ",
        "Ł"
      ],
      [
        "è®",
        "®"
      ],
      [
        "å°±",
        "æĺ¯"
      ],
      [
        "ä»",
        "Ĭ"
      ],
      [
        "éĩį",
        "è¦ģ"
      ],
      [
        "è´",
        "£"
      ],
      [
        "å¸",
        "ĥ"
      ],
      [
        "æĢ",
        "ģ"
      ],
      [
        "èĩ",
        "´"
      ],
      [
        "è§",
        "ģ"
      ],
      [
        "æ",
        "Ĥ£"
      ],
      [
        "å®",
        "¢"
      ],
      [
        "å¿",
        "ħ"
      ],
      [
        "ç",
        "ı"
      ],
      [
        "è®",
        "º"
      ],
      [
        "åį",
        "ĩ"
      ],
      [
        "å¹",
        "²"
      ],
      [
        "æ",
        "Ĥ"
      ],
      [
        "çłĶ",
        "ç©¶"
      ],
      [
        "è½",
        "¬"
      ],
      [
        "åĨ",
        "į"
      ],
      [
        "ä¸ĵ",
        "ä¸ļ"
      ],
      [
        "åĿ",
        "ļ"
      ],
      [
        "å®ī",
        "åħ¨"
      ],
      [
        "æĸ",
        "¯"
      ],
      [
        "éª",
        "Į"
      ],
      [
        "åĨ",
        "µ"
      ],
      [
        "è",
        "ı"
      ],
      [
        "çĶŁ",
        "æ´»"
      ],
      [
        "æŀ",
        "ģ"
      ],
      [
        "æĸ",
        "Ń"
      ],
      [
        "åį",
        "İ"
      ],
      [
        "é",
        "Ł"
      ],
      [
        "æİ",
        "§"
      ],
      [
        "å",
        "Ħ"
      ],
      [
        "åı",
        "į"
      ],
      [
        "åĳ",
        "½"
      ],
      [
        "è¶",
        "Ĭ"
      ],
      [
        "åİ",
        "Ĩ"
      ],
      [
        "ç»",
        "Ń"
      ],
      [
        "æ",
        "ħ"
      ],
      [
        "èĬ",
        "±"
      ],
      [
        "å¦Ĥ",
        "æŀľ"
      ],
      [
        "å¾",
        "·"
      ],
      [
        "è¶",
        "³"
      ],
      [
        "ä¸»",
        "è¦ģ"
      ],
      [
        "éĻ",
        "Ĳ"
      ],
      [
        "1",
        "0"
      ],
      [
        "åĵ",
        "į"
      ],
      [
        "æ",
        "¹"
      ],
      [
        "å",
        "¡"
      ],
      [
        "åģ",
        "¥"
      ],
      [
        "æĹ¶",
        "éĹ´"
      ],
      [
        "è¯",
        "Ŀ"
      ],
      [
        "æ¸",
        "©"
      ],
      [
        "ä½",
        "ķ"
      ],
      [
        "æĿ",
        "ĥ"
      ],
      [
        "æ£",
        "Ģ"
      ],
      [
        "å·",
        "ŀ"
      ],
      [
        "è",
        "ĳ"
      ],
      [
        "çĪ",
        "±"
      ],
      [
        "è¯",
        "ķ"
      ],
      [
        "ä¸",
        "Ķ"
      ],
      [
        "éĢ",
        "Ĥ"
      ],
      [
        "åİ",
        "ĭ"
      ],
      [
        "èĮ",
        "ĥ"
      ],
      [
        "æ¸",
        "¸"
      ],
      [
        "ç",
        "ĭ"
      ],
      [
        "èİ",
        "·"
      ],
      [
        "ç",
        "¢"
      ],
      [
        "ä»ĸ",
        "ä»¬"
      ],
      [
        "åĢ",
        "¼"
      ],
      [
        "çļĦ",
        "äºº"
      ],
      [
        "æ¨",
        "¡"
      ],
      [
        "åĪ",
        "Ļ"
      ],
      [
        "ç",
        "ª"
      ],
      [
        "æİ",
        "Ĵ"
      ],
      [
        "åĨ",
        "Ľ"
      ],
      [
        "åĨ",
        "ľ"
      ],
      [
        "æĸĩ",
        "åĮĸ"
      ],
      [
        "åĳ",
        "Ĭ"
      ],
      [
        "éļ",
        "¾"
      ],
      [
        "é¦",
        "ĸ"
      ],
      [
        "éĩ",
        "ĩ"
      ],
      [
        "æĸ¹",
        "éĿ¢"
      ],
      [
        "æ¡",
        "Ī"
      ],
      [
        "åŁ",
        "Ł"
      ],
      [
        "è¶",
        "ħ"
      ],
      [
        "è",
        "ŀ"
      ],
      [
        "åĬ",
        "¿"
      ],
      [
        "ç§",
        "°"
      ],
      [
        "ä»",
        "Ģ"
      ],
      [
        "é¡¹",
        "çĽ®"
      ],
      [
        "åı",
        "²"
      ],
      [
        "åº",
        "·"
      ],
      [
        "æľ",
        "ª"
      ],
      [
        "å·¥",
        "ç¨ĭ"
      ],
      [
        "å§",
        "ĭ"
      ],
      [
        "çĬ",
        "¶"
      ],
      [
        "è¡",
        "Ģ"
      ],
      [
        "åŃ",
        "Ĺ"
      ],
      [
        "åħ",
        "ĭ"
      ],
      [
        "ä¸",
        "¥"
      ],
      [
        "æ²",
        "¹"
      ],
      [
        "âĢĿ",
        ","
      ],
      [
        "ç»",
        "ĩ"
      ],
      [
        "æĺ",
        "¾"
      ],
      [
        "åı",
        "Ī"
      ],
      [
        "åĳ",
        "¨"
      ],
      [
        "åŃ",
        "ĺ"
      ],
      [
        "ç³»",
        "ç»Ł"
      ],
      [
        "æ±",
        "Ł"
      ],
      [
        "æ²»",
        "çĸĹ"
      ],
      [
        "æµ",
        "ĭ"
      ],
      [
        "åŃ¦",
        "çĶŁ"
      ],
      [
        "éĻ",
        "¤"
      ],
      [
        "éħ",
        "į"
      ],
      [
        "äºº",
        "æ°ĳ"
      ],
      [
        "è¦ģ",
        "æ±Ĥ"
      ],
      [
        "æıĲ",
        "ä¾Ľ"
      ],
      [
        "åħ·",
        "æľī"
      ],
      [
        "ä¼",
        "Ĺ"
      ],
      [
        "ä¸ĸ",
        "çķĮ"
      ],
      [
        "ä¾",
        "¿"
      ],
      [
        "âĢ",
        "Ķ"
      ],
      [
        "èī",
        "º"
      ],
      [
        "åı¯",
        "èĥ½"
      ],
      [
        "åĦ",
        "¿"
      ],
      [
        "åŁ",
        "¹"
      ],
      [
        "å½±",
        "åĵį"
      ],
      [
        "åĪ",
        "Ĵ"
      ],
      [
        "1",
        "9"
      ],
      [
        "æĥħ",
        "åĨµ"
      ],
      [
        "åį",
        "ı"
      ],
      [
        "æĪ",
        "¿"
      ],
      [
        "é©",
        "¬"
      ],
      [
        "çļ",
        "®"
      ],
      [
        "è¿Ļ",
        "ä¸ª"
      ],
      [
        "åĢ",
        "Ļ"
      ],
      [
        "å¥",
        "¹"
      ],
      [
        "è¡Į",
        "ä¸ļ"
      ],
      [
        "ç»",
        "Ĩ"
      ],
      [
        "åŃ¦",
        "ä¹ł"
      ],
      [
        "ä¹",
        "Ĳ"
      ],
      [
        "çĽ",
        "ĳ"
      ],
      [
        "çİ¯",
        "å¢ĥ"
      ],
      [
        "å¥½",
        "çļĦ"
      ],
      [
        "è´¨",
        "éĩı"
      ],
      [
        "åĪ",
        "ĩ"
      ],
      [
        "ä»Ģ",
        "ä¹Ī"
      ],
      [
        "åľ",
        "Ł"
      ],
      [
        "ç«",
        "Ļ"
      ],
      [
        "åĲĮ",
        "æĹ¶"
      ],
      [
        "èĲ",
        "½"
      ],
      [
        "ç",
        "Į"
      ],
      [
        "éĿ",
        "Ĵ"
      ],
      [
        "ç±",
        "³"
      ],
      [
        "å±",
        "Ĥ"
      ],
      [
        "ãĢĤ",
        "âĢĿ"
      ],
      [
        "çº",
        "¦"
      ],
      [
        "çħ",
        "§"
      ],
      [
        "äº",
        "¬"
      ],
      [
        "çİ",
        "ĭ"
      ],
      [
        "çģ",
        "«"
      ],
      [
        "çī",
        "ĩ"
      ],
      [
        "èĥ½",
        "åĬĽ"
      ],
      [
        "åĽł",
        "ä¸º"
      ],
      [
        "æľ",
        "Ľ"
      ],
      [
        "è®¾",
        "è®¡"
      ],
      [
        "é",
        "¾"
      ],
      [
        "å¼",
        "ł"
      ],
      [
        "æ´»",
        "åĬ¨"
      ],
      [
        "äº§",
        "ä¸ļ"
      ],
      [
        "å£",
        "«"
      ],
      [
        "å°",
        "Ķ"
      ],
      [
        "å±",
        "ŀ"
      ],
      [
        "çŁ",
        "³"
      ],
      [
        "é¢",
        "Ħ"
      ],
      [
        "è®¾",
        "å¤ĩ"
      ],
      [
        "å¤",
        "ª"
      ],
      [
        "åį",
        "³"
      ],
      [
        "æīĢ",
        "ä»¥"
      ],
      [
        "éĶ",
        "Ģ"
      ],
      [
        "éĻ",
        "į"
      ],
      [
        "æ",
        "¥"
      ],
      [
        "æ",
        "ļ"
      ],
      [
        "æ",
        "Ĵ"
      ],
      [
        "ä»¥",
        "åıĬ"
      ],
      [
        "å¤",
        "±"
      ],
      [
        "æ®",
        "µ"
      ],
      [
        "åĸ",
        "Ħ"
      ],
      [
        "æ",
        "ĳ"
      ],
      [
        "æıĲ",
        "é«ĺ"
      ],
      [
        "çº",
        "¢"
      ],
      [
        "åĪĽ",
        "æĸ°"
      ],
      [
        "è±",
        "¡"
      ],
      [
        "èµ",
        "°"
      ],
      [
        "èŀ",
        "į"
      ],
      [
        "åĩ",
        "ł"
      ],
      [
        "æĺ¯",
        "ä¸Ģ"
      ],
      [
        "ç»Ħ",
        "ç»ĩ"
      ],
      [
        "æī",
        "¿"
      ],
      [
        "ç¦",
        "»"
      ],
      [
        "åħ",
        "ħ"
      ],
      [
        "éļ",
        "ı"
      ],
      [
        "åº",
        "ľ"
      ],
      [
        "æĤ£",
        "èĢħ"
      ],
      [
        "æ»",
        "¡"
      ],
      [
        "æ¼",
        "Ķ"
      ],
      [
        "ä¿¡",
        "æģ¯"
      ],
      [
        "ä¾",
        "Ŀ"
      ],
      [
        "ç½",
        "®"
      ],
      [
        "çĽ",
        "Ĭ"
      ],
      [
        "åħ",
        "į"
      ],
      [
        "çĻ",
        "¾"
      ],
      [
        "å®",
        "¤"
      ],
      [
        "æł",
        "¸"
      ],
      [
        "å",
        "ĥ"
      ],
      [
        "éĿ",
        "©"
      ],
      [
        "èī",
        "¯"
      ],
      [
        "ä»",
        "ħ"
      ],
      [
        "æŀ",
        "Ĺ"
      ],
      [
        "ä½ľ",
        "ä¸º"
      ],
      [
        "å¾",
        "Ģ"
      ],
      [
        "åĪ",
        "Ĺ"
      ],
      [
        "æ",
        "ĵ"
      ],
      [
        "ä¸Ń",
        "çļĦ"
      ],
      [
        "è¯",
        "Ħ"
      ],
      [
        "æĿ",
        "¿"
      ],
      [
        "éĻ",
        "©"
      ],
      [
        "æĿ",
        "ĳ"
      ],
      [
        "å¤§",
        "çļĦ"
      ],
      [
        "é",
        "Ĥ"
      ],
      [
        "å",
        "ł"
      ],
      [
        "åŃ¦",
        "æł¡"
      ],
      [
        "æ",
        "¿"
      ],
      [
        "å¯",
        "Į"
      ],
      [
        "å",
        "¨"
      ],
      [
        "çī",
        "Į"
      ],
      [
        "ä¸į",
        "åĲĮ"
      ],
      [
        "ä¾",
        "ĭ"
      ],
      [
        "å¤",
        "Ł"
      ],
      [
        "åĩ",
        "ı"
      ],
      [
        "è´",
        "Ł"
      ],
      [
        "æĻ",
        "º"
      ],
      [
        "çŃ",
        "ĸ"
      ],
      [
        "ä½ľ",
        "çĶ¨"
      ],
      [
        "æĻ",
        "¯"
      ],
      [
        "è¨",
        "Ģ"
      ],
      [
        "äºº",
        "åĳĺ"
      ],
      [
        "ç²¾",
        "ç¥ŀ"
      ],
      [
        "ä¸Ń",
        "å¿ĥ"
      ],
      [
        "äºº",
        "çļĦ"
      ],
      [
        "åŃ",
        "©"
      ],
      [
        "äº",
        "¿"
      ],
      [
        "äº",
        "ī"
      ],
      [
        "æĪĲ",
        "ä¸º"
      ],
      [
        "äº",
        "ļ"
      ],
      [
        "åĽ",
        "´"
      ],
      [
        "ä¿",
        "®"
      ],
      [
        "è¿Ļ",
        "æł·"
      ],
      [
        "å¾Ī",
        "å¤ļ"
      ],
      [
        "ä¸Ģ",
        "äºĽ"
      ],
      [
        "å¿",
        "µ"
      ],
      [
        "åı",
        "·"
      ],
      [
        "éĺ",
        "³"
      ],
      [
        "åĽ½",
        "éĻħ"
      ],
      [
        "ç¾",
        "¤"
      ],
      [
        "æ",
        "Ĳ"
      ],
      [
        "å¿",
        "Ĺ"
      ],
      [
        "è®",
        "¸"
      ],
      [
        "æĮ",
        "ī"
      ],
      [
        "ä¹Ł",
        "æĺ¯"
      ],
      [
        "æĶ¿",
        "åºľ"
      ],
      [
        "æĭ",
        "©"
      ],
      [
        "åĩº",
        "çİ°"
      ],
      [
        "éĿŀ",
        "å¸¸"
      ],
      [
        "åı",
        "ĭ"
      ],
      [
        "åĽ",
        "Ń"
      ],
      [
        "å¾",
        "ĭ"
      ],
      [
        "çĹ",
        "ĩ"
      ],
      [
        "åĽ",
        "¾"
      ],
      [
        "ä½",
        "ı"
      ],
      [
        "åİ",
        "¿"
      ],
      [
        "æ²",
        "³"
      ],
      [
        "åĲ",
        "«"
      ],
      [
        "ä»",
        "½"
      ],
      [
        "æĹ",
        "©"
      ],
      [
        "è¿",
        "ŀ"
      ],
      [
        "å¤§",
        "åŃ¦"
      ],
      [
        "ç®",
        "Ĺ"
      ],
      [
        "âĢĿ",
        "ãĢĤ"
      ],
      [
        "å®",
        "³"
      ],
      [
        "ç»",
        "Ī"
      ],
      [
        "è¯",
        "Ń"
      ],
      [
        "ç¬¬",
        "ä¸Ģ"
      ],
      [
        "å®ŀ",
        "çİ°"
      ],
      [
        "åĲ",
        "ĥ"
      ],
      [
        "äº",
        "Ĵ"
      ],
      [
        "è",
        "ª"
      ],
      [
        "èĤ",
        "¡"
      ],
      [
        "è¿Ļ",
        "äºĽ"
      ],
      [
        "çĽ¸",
        "åħ³"
      ],
      [
        "å¯¹",
        "äºİ"
      ],
      [
        "ä¸Ģ",
        "å®ļ"
      ],
      [
        "å¯",
        "Ĩ"
      ],
      [
        "ç§ĳ",
        "æĬĢ"
      ],
      [
        "ç§ĳ",
        "åŃ¦"
      ],
      [
        "åı",
        "Į"
      ],
      [
        "éĢī",
        "æĭ©"
      ],
      [
        "æĭ",
        "ī"
      ],
      [
        "å·²",
        "ç»ı"
      ],
      [
        "èĩªå·±",
        "çļĦ"
      ],
      [
        "åģ¥",
        "åº·"
      ],
      [
        "è¿",
        "ľ"
      ],
      [
        "é»",
        "Ħ"
      ],
      [
        "åħ¨",
        "åĽ½"
      ],
      [
        "æĿĲ",
        "æĸĻ"
      ],
      [
        "åĿ",
        "ĩ"
      ],
      [
        "èĪ",
        "¬"
      ],
      [
        "æĻ",
        "®"
      ],
      [
        "éħ",
        "Ĵ"
      ],
      [
        "æ¿",
        "Ģ"
      ],
      [
        "åĲĪ",
        "ä½ľ"
      ],
      [
        "è§",
        "Ĵ"
      ],
      [
        "åħ",
        "´"
      ],
      [
        "éĴ",
        "¢"
      ],
      [
        "ç",
        "Ĩ"
      ],
      [
        "æĹ¶",
        "åĢĻ"
      ],
      [
        "åħ¶",
        "ä»ĸ"
      ],
      [
        "çļĦ",
        "ä¸Ģ"
      ],
      [
        "è®",
        "²"
      ],
      [
        "è§",
        "ī"
      ],
      [
        "æł¹",
        "æį®"
      ],
      [
        "Ġ",
        "ãĢĤ"
      ],
      [
        "è¿ĩ",
        "ç¨ĭ"
      ],
      [
        "å",
        "Ĥ"
      ],
      [
        "åĽł",
        "æŃ¤"
      ],
      [
        "åĶ",
        "®"
      ],
      [
        "æĬķ",
        "èµĦ"
      ],
      [
        "è¯",
        "·"
      ],
      [
        "æĹ",
        "ı"
      ],
      [
        "ä¸į",
        "æĸŃ"
      ],
      [
        "å¤Ħ",
        "çĲĨ"
      ],
      [
        "åı",
        "¤"
      ],
      [
        "ä½Ĩ",
        "æĺ¯"
      ],
      [
        "ä¸į",
        "æĺ¯"
      ],
      [
        "çĽ®",
        "åīį"
      ],
      [
        "æŁ",
        "ĵ"
      ],
      [
        "æķ",
        "ħ"
      ],
      [
        "è´",
        "¢"
      ],
      [
        "1",
        "2"
      ],
      [
        "åĲ",
        "¸"
      ],
      [
        "å¾",
        "®"
      ],
      [
        "é¡",
        "»"
      ],
      [
        "ä»¥",
        "ä¸Ĭ"
      ],
      [
        "å",
        "©"
      ],
      [
        "åĪ°",
        "äºĨ"
      ],
      [
        "åıĳ",
        "çĶŁ"
      ],
      [
        "è",
        "Ń"
      ],
      [
        "èĭ",
        "±"
      ],
      [
        "æī",
        "¹"
      ],
      [
        "çľ",
        "¼"
      ],
      [
        "éŁ",
        "³"
      ],
      [
        "ä¸į",
        "èĥ½"
      ],
      [
        "åĪ",
        "Ŀ"
      ],
      [
        "åĥ",
        "ı"
      ],
      [
        "è½",
        "»"
      ],
      [
        "æĿ",
        "İ"
      ],
      [
        "åŁİ",
        "å¸Ĥ"
      ],
      [
        "è®",
        "Ń"
      ],
      [
        "æĸ¹",
        "å¼ı"
      ],
      [
        "éĵ",
        "¶"
      ],
      [
        "éħ",
        "¸"
      ],
      [
        "æ",
        "¤"
      ],
      [
        "çŃ",
        "ĳ"
      ],
      [
        "åŃ©",
        "åŃĲ"
      ],
      [
        "æłĩ",
        "åĩĨ"
      ],
      [
        "åŁº",
        "ç¡"
      ],
      [
        "éĥ¨",
        "éĹ¨"
      ],
      [
        "ä¸",
        "¾"
      ],
      [
        "è",
        "Ĩ"
      ],
      [
        "ç¦",
        "ı"
      ],
      [
        "åŁºç¡",
        "Ģ"
      ],
      [
        "ç¨",
        "³"
      ],
      [
        "è¯",
        "¾"
      ],
      [
        "éĵ",
        "ģ"
      ],
      [
        "æľ",
        "¨"
      ],
      [
        "åįķ",
        "ä½į"
      ],
      [
        "éĥ¨",
        "åĪĨ"
      ],
      [
        "æŃ",
        "¢"
      ],
      [
        "å±",
        "ħ"
      ],
      [
        "åī",
        "¯"
      ],
      [
        "åºĶ",
        "çĶ¨"
      ],
      [
        "çĶ",
        "·"
      ],
      [
        "æķ°",
        "æį®"
      ],
      [
        "è¡¨",
        "ç¤º"
      ],
      [
        "å¤§",
        "å®¶"
      ],
      [
        "æĬ",
        "Ĺ"
      ],
      [
        "çĸ",
        "«"
      ],
      [
        "åİ",
        "Ĥ"
      ],
      [
        "åĮ»",
        "éĻ¢"
      ],
      [
        "æĭ",
        "¬"
      ],
      [
        "èģ",
        "ļ"
      ],
      [
        "çı",
        "Ń"
      ],
      [
        "ç",
        "ĵ"
      ],
      [
        "è¾",
        "¹"
      ],
      [
        "æ¬",
        "¾"
      ],
      [
        "èĥ½",
        "å¤Ł"
      ],
      [
        "è¾",
        "ĵ"
      ],
      [
        "ä¸Ģ",
        "èĪ¬"
      ],
      [
        "åŃ",
        "£"
      ],
      [
        "ä¼",
        "¤"
      ],
      [
        "å°",
        "½"
      ],
      [
        "åħ¶",
        "ä¸Ń"
      ],
      [
        "åī",
        "Ĥ"
      ],
      [
        "å®",
        "¡"
      ],
      [
        "20",
        "0"
      ],
      [
        "çļĦ",
        "æĺ¯"
      ],
      [
        "é¦",
        "Ļ"
      ],
      [
        "çº",
        "ª"
      ],
      [
        "å¥",
        "ĸ"
      ],
      [
        "åİĨ",
        "åı²"
      ],
      [
        "çķ",
        "¥"
      ],
      [
        "åº",
        "ķ"
      ],
      [
        "ç®",
        "Ģ"
      ],
      [
        "éĥ½",
        "æĺ¯"
      ],
      [
        "å£",
        "°"
      ],
      [
        "1",
        "1"
      ],
      [
        "å®",
        "ĺ"
      ],
      [
        "çª",
        "ģ"
      ],
      [
        "åĳ",
        "³"
      ],
      [
        "å·¥",
        "ä¸ļ"
      ],
      [
        "æĸ¹",
        "æ³ķ"
      ],
      [
        "ç",
        "£"
      ],
      [
        "åį",
        "«"
      ],
      [
        "éļ",
        "ľ"
      ],
      [
        "å®",
        "Ŀ"
      ],
      [
        ":",
        "âĢľ"
      ],
      [
        "æ±",
        "½"
      ],
      [
        "åħ",
        "«"
      ],
      [
        "ä¸»",
        "ä¹ī"
      ],
      [
        "å¼Ģ",
        "å§ĭ"
      ],
      [
        "Ġ",
        "ãĢģ"
      ],
      [
        "æ",
        "½"
      ],
      [
        "æľī",
        "éĻĲ"
      ],
      [
        "çł",
        "´"
      ],
      [
        "ä»",
        "ĭ"
      ],
      [
        "çĻ",
        "ľ"
      ],
      [
        "æ¶",
        "²"
      ],
      [
        "åį",
        "Ĭ"
      ],
      [
        "ç",
        "ĩ"
      ],
      [
        "çĻľ",
        "é£İ"
      ],
      [
        "å¼Ģ",
        "å±ķ"
      ],
      [
        "æĭ",
        "ħ"
      ],
      [
        "çĻ½",
        "çĻľé£İ"
      ],
      [
        "ä¿",
        "ĥ"
      ],
      [
        "èµĦ",
        "æºĲ"
      ],
      [
        "åĬŁ",
        "èĥ½"
      ],
      [
        "åĮħ",
        "æĭ¬"
      ],
      [
        "åħ¨",
        "éĿ¢"
      ],
      [
        "è¿Ļ",
        "ç§į"
      ],
      [
        "æĪĸ",
        "èĢħ"
      ],
      [
        "é",
        "²"
      ],
      [
        "å®",
        "£"
      ],
      [
        "å»º",
        "çŃĳ"
      ],
      [
        "è¡",
        "¥"
      ],
      [
        "é",
        "Ĩ"
      ],
      [
        "å¸",
        "Į"
      ],
      [
        "äº",
        "²"
      ],
      [
        "æľº",
        "æŀĦ"
      ],
      [
        "è",
        "Ĵ"
      ],
      [
        "èİ·",
        "å¾Ĺ"
      ],
      [
        "åĸ",
        "ľ"
      ],
      [
        "ç¾İ",
        "åĽ½"
      ],
      [
        "åĨ",
        "·"
      ],
      [
        "æ°´",
        "å¹³"
      ],
      [
        "è",
        "Ĺ"
      ],
      [
        "åľ°",
        "åĮº"
      ],
      [
        "éĽĨ",
        "åĽ¢"
      ],
      [
        "ç½",
        "Ĺ"
      ],
      [
        "åį",
        "´"
      ],
      [
        "è§Ħ",
        "å®ļ"
      ],
      [
        "æĽ",
        "¾"
      ],
      [
        "çĶ±",
        "äºİ"
      ],
      [
        "ç¼",
        "º"
      ],
      [
        "å¿ħ",
        "é¡»"
      ],
      [
        "åį",
        "°"
      ],
      [
        "æĺ",
        "Ł"
      ],
      [
        "é¾",
        "Ļ"
      ],
      [
        "æ±",
        "¡"
      ],
      [
        "åĿļ",
        "æĮģ"
      ],
      [
        "åħ",
        "Ń"
      ],
      [
        "ç§¯",
        "æŀģ"
      ],
      [
        "åį",
        "ļ"
      ],
      [
        "æŀ",
        "Ĳ"
      ],
      [
        "ä¿Ŀ",
        "æĬ¤"
      ],
      [
        "æĺ",
        "¥"
      ],
      [
        "æĪĳ",
        "åĽ½"
      ],
      [
        "ç»ĵ",
        "æŀĦ"
      ],
      [
        "æ¯",
        "Ĵ"
      ],
      [
        "ç",
        "¿"
      ],
      [
        "åĮĹ",
        "äº¬"
      ],
      [
        "é¢Ĩ",
        "åŁŁ"
      ],
      [
        "çİ°",
        "åľ¨"
      ],
      [
        "æĹ",
        "ħ"
      ],
      [
        "çķ",
        "Ļ"
      ],
      [
        "é¢Ĩ",
        "å¯¼"
      ],
      [
        "å¸",
        "®"
      ],
      [
        "åĬł",
        "å¼º"
      ],
      [
        "ä¸",
        "´"
      ],
      [
        "å¢ŀ",
        "éķ¿"
      ],
      [
        "æī",
        "§"
      ],
      [
        "ä»£",
        "è¡¨"
      ],
      [
        "å·",
        "®"
      ],
      [
        "æ³¨",
        "æĦı"
      ],
      [
        "ä¸Ģ",
        "æŃ¥"
      ],
      [
        "æıĲ",
        "åįĩ"
      ],
      [
        "åı",
        "¦"
      ],
      [
        "3",
        "0"
      ],
      [
        "åĽ",
        "º"
      ],
      [
        "éĢ",
        "ģ"
      ],
      [
        "çĭ",
        "¬"
      ],
      [
        "æ¯Ķ",
        "è¾ĥ"
      ],
      [
        "1",
        "5"
      ],
      [
        "20",
        "2"
      ],
      [
        "ç»",
        "§"
      ],
      [
        "å·",
        "´"
      ],
      [
        "ç",
        "¯"
      ],
      [
        "çĸ",
        "¾"
      ],
      [
        "è´",
        "Ń"
      ],
      [
        "åī",
        "§"
      ],
      [
        "çĶ",
        "»"
      ],
      [
        "ä½",
        "Ļ"
      ],
      [
        "ç´",
        "§"
      ],
      [
        "åį",
        "ł"
      ],
      [
        "äºĨ",
        "è§£"
      ],
      [
        "æİ§",
        "åĪ¶"
      ],
      [
        "äº",
        "ĳ"
      ],
      [
        "å¢ŀ",
        "åĬł"
      ],
      [
        "æŃ",
        "¦"
      ],
      [
        "æį",
        "Ł"
      ],
      [
        "ä¸",
        "°"
      ],
      [
        "æ¹",
        "ĸ"
      ],
      [
        "æĹ¶",
        "ä»£"
      ],
      [
        "é»",
        "ĳ"
      ],
      [
        "å¾",
        "ģ"
      ],
      [
        "ç¨",
        "İ"
      ],
      [
        "ç»",
        "¼"
      ],
      [
        "ç¬¬",
        "äºĮ"
      ],
      [
        "èĳ",
        "Ĺ"
      ],
      [
        "åĬ",
        "³"
      ],
      [
        "å®¢",
        "æĪ·"
      ],
      [
        "å½¢",
        "æĪĲ"
      ],
      [
        "å¤",
        "®"
      ],
      [
        "é",
        "º"
      ],
      [
        "å¾",
        "ħ"
      ],
      [
        "å¹³",
        "åı°"
      ],
      [
        "å¼",
        "Ĥ"
      ],
      [
        "åį",
        "ĥ"
      ],
      [
        "å®Į",
        "æĪĲ"
      ],
      [
        "è´£",
        "ä»»"
      ],
      [
        "åŁº",
        "æľ¬"
      ],
      [
        "æĶ¹",
        "éĿ©"
      ],
      [
        "ä¹",
        "¡"
      ],
      [
        "ä¸ª",
        "äºº"
      ],
      [
        "ç»",
        "¿"
      ],
      [
        "çĤ",
        "º"
      ],
      [
        "ç»",
        "ľ"
      ],
      [
        "æĢĿ",
        "æĥ³"
      ],
      [
        "åħ³",
        "ç³»"
      ],
      [
        "çĤ",
        "İ"
      ],
      [
        "è¿ĺ",
        "æĺ¯"
      ],
      [
        "åĪ",
        "»"
      ],
      [
        "åŃ¦",
        "éĻ¢"
      ],
      [
        "åĵģ",
        "çīĮ"
      ],
      [
        "åĪĨ",
        "æŀĲ"
      ],
      [
        "æķĻ",
        "åŃ¦"
      ],
      [
        "é¥",
        "®"
      ],
      [
        "è§£",
        "åĨ³"
      ],
      [
        "å¹´",
        "çļĦ"
      ],
      [
        "çº",
        "³"
      ],
      [
        "èĢĮ",
        "ä¸Ķ"
      ],
      [
        "æ",
        "¦"
      ],
      [
        "åĨħ",
        "å®¹"
      ],
      [
        "ä¸į",
        "ä¼ļ"
      ],
      [
        "æ¬",
        "¢"
      ],
      [
        "éĤ£",
        "ä¹Ī"
      ],
      [
        "æĶ¿",
        "çŃĸ"
      ],
      [
        "æľī",
        "æķĪ"
      ],
      [
        "é",
        "¸"
      ],
      [
        "æľīéĻĲ",
        "åħ¬åı¸"
      ],
      [
        "èĢ",
        "Ĳ"
      ],
      [
        "çİ°",
        "ä»£"
      ],
      [
        "åıĳ",
        "çİ°"
      ],
      [
        "æĶ¿",
        "æ²»"
      ],
      [
        "çŁ",
        "Ń"
      ],
      [
        "åº",
        "Ĺ"
      ],
      [
        "èĮ",
        "¶"
      ],
      [
        "è®¤",
        "ä¸º"
      ],
      [
        "é",
        "¼"
      ],
      [
        "æł",
        "ĳ"
      ],
      [
        "åĪ¶",
        "éĢł"
      ],
      [
        "å¯¼",
        "èĩ´"
      ],
      [
        "çĶ",
        "³"
      ],
      [
        "åĲĦ",
        "ç§į"
      ],
      [
        "ä¸Ĭ",
        "çļĦ"
      ],
      [
        "åĽ½",
        "åĨħ"
      ],
      [
        "éľĢ",
        "æ±Ĥ"
      ],
      [
        "é¢",
        "Ŀ"
      ],
      [
        "éģ",
        "¿"
      ],
      [
        "åį",
        "¡"
      ],
      [
        "åı",
        "¥"
      ],
      [
        "æ¸",
        "¯"
      ],
      [
        "ç«",
        "ŀ"
      ],
      [
        "åĩ",
        "»"
      ],
      [
        "æī",
        "¾"
      ],
      [
        "ç»ı",
        "èĲ¥"
      ],
      [
        "æ³",
        "¢"
      ],
      [
        "äº§",
        "çĶŁ"
      ],
      [
        "æ¯",
        "į"
      ],
      [
        "æĸ°",
        "çļĦ"
      ],
      [
        "æĮ",
        "¥"
      ],
      [
        "äºº",
        "æīį"
      ],
      [
        "ç§",
        "»"
      ],
      [
        "éķ",
        "ĩ"
      ],
      [
        "èĻ",
        "½"
      ],
      [
        "è´",
        "§"
      ],
      [
        ")",
        ","
      ],
      [
        "æĽ´",
        "åĬł"
      ],
      [
        "å¯",
        "Ł"
      ],
      [
        "åĪ©",
        "çĶ¨"
      ],
      [
        "æŁ",
        "Ĳ"
      ],
      [
        "æľī",
        "åħ³"
      ],
      [
        "åĲ",
        "¦"
      ],
      [
        "åĪ¶",
        "åº¦"
      ],
      [
        "ä¸º",
        "äºĨ"
      ],
      [
        "èĥ",
        "ľ"
      ],
      [
        "ä½ĵ",
        "ç³»"
      ],
      [
        "å¸Į",
        "æľĽ"
      ],
      [
        "èĪ",
        "ª"
      ],
      [
        "å²",
        "ģ"
      ],
      [
        "åĨ",
        "ł"
      ],
      [
        "è¿Ļ",
        "ä¸Ģ"
      ],
      [
        "æ±",
        "ī"
      ],
      [
        "æŃ",
        "»"
      ],
      [
        "ä¼ļ",
        "è®®"
      ],
      [
        ",",
        "âĢľ"
      ],
      [
        "ä»",
        "¤"
      ],
      [
        "ç»¼",
        "åĲĪ"
      ],
      [
        "æİ¨",
        "è¿Ľ"
      ],
      [
        "çĶ¨",
        "äºİ"
      ],
      [
        "æ¤",
        "į"
      ],
      [
        "æ±½",
        "è½¦"
      ],
      [
        "éĢł",
        "æĪĲ"
      ],
      [
        "éĩį",
        "çĤ¹"
      ],
      [
        "åħ",
        "°"
      ],
      [
        "å½",
        "ķ"
      ],
      [
        "çŁ¥",
        "è¯Ĩ"
      ],
      [
        "æ¢",
        "¦"
      ],
      [
        "ä¼ł",
        "ç»Ł"
      ],
      [
        "åº",
        "§"
      ],
      [
        "æĿ¥",
        "çļĦ"
      ],
      [
        "éĺ",
        "¿"
      ],
      [
        "å®ŀ",
        "æĸ½"
      ],
      [
        "èĭ",
        "ı"
      ],
      [
        "çĹ",
        "Ľ"
      ],
      [
        "å®¹",
        "æĺĵ"
      ],
      [
        "æİ¨",
        "åĬ¨"
      ],
      [
        "çĽ®",
        "æłĩ"
      ],
      [
        "å°",
        "Ħ"
      ],
      [
        "æīĢ",
        "æľī"
      ],
      [
        "èĩª",
        "çĦ¶"
      ],
      [
        "çī",
        "Ľ"
      ],
      [
        "ç»",
        "Ŀ"
      ],
      [
        "ä¹ĭ",
        "åĲİ"
      ],
      [
        "åĨ",
        "Ļ"
      ],
      [
        "åį",
        "±"
      ],
      [
        "æ¬",
        "§"
      ],
      [
        "æį",
        "¢"
      ],
      [
        "å¼Ģ",
        "åıĳ"
      ],
      [
        "çī",
        "Ī"
      ],
      [
        "æĶ¯",
        "æĮģ"
      ],
      [
        "æĭ",
        "¥"
      ],
      [
        "ä¹¦",
        "è®°"
      ],
      [
        "çĸ¾",
        "çĹħ"
      ],
      [
        "çļĦ",
        "æĹ¶åĢĻ"
      ],
      [
        "ç¼",
        "ĸ"
      ],
      [
        "åŃĺ",
        "åľ¨"
      ],
      [
        "éĴ",
        "Ł"
      ],
      [
        "æ°",
        "§"
      ],
      [
        "è¯",
        "»"
      ],
      [
        "ä¸ļ",
        "åĬ¡"
      ],
      [
        "å¦Ĥ",
        "ä½ķ"
      ],
      [
        "ç§",
        "Ģ"
      ],
      [
        "éĩĩ",
        "çĶ¨"
      ],
      [
        "ç½ĳ",
        "ç»ľ"
      ],
      [
        "éģ",
        "ĩ"
      ],
      [
        "çŁ¥",
        "éģĵ"
      ],
      [
        "ä¸Ń",
        "å¤®"
      ],
      [
        "æľ",
        "ĥ"
      ],
      [
        "æ¶Ī",
        "è´¹"
      ],
      [
        "ç«",
        "ł"
      ],
      [
        "æĦ",
        "¿"
      ],
      [
        "åħļ",
        "çļĦ"
      ],
      [
        "äºĨ",
        "ä¸Ģ"
      ],
      [
        "ç«",
        "¯"
      ],
      [
        "ä¿Ŀ",
        "æĮģ"
      ],
      [
        "åĲ",
        "¬"
      ],
      [
        "ä¹",
        "Ŀ"
      ],
      [
        "æķĪ",
        "æŀľ"
      ],
      [
        "çī¹",
        "åĪ«"
      ],
      [
        "è",
        "Ľ"
      ],
      [
        "çī¹",
        "èī²"
      ],
      [
        "çĮ",
        "®"
      ],
      [
        "ä¸į",
        "ä»ħ"
      ],
      [
        "æĤ",
        "¨"
      ],
      [
        "æĿ¡",
        "ä»¶"
      ],
      [
        "åĵ",
        "ª"
      ],
      [
        "èı",
        "ľ"
      ],
      [
        "æĸ",
        "Ĺ"
      ],
      [
        "åºĶ",
        "è¯¥"
      ],
      [
        "å»º",
        "ç«ĭ"
      ],
      [
        "æĴ",
        "Ń"
      ],
      [
        "åº",
        "Ń"
      ],
      [
        "å®",
        "Ī"
      ],
      [
        "æ´",
        "Ĺ"
      ],
      [
        "è´Ł",
        "è´£"
      ],
      [
        "åĬ",
        "ª"
      ],
      [
        "å±",
        "Ĭ"
      ],
      [
        "éĢ",
        "Ĳ"
      ],
      [
        "èŃ",
        "¦"
      ],
      [
        "é¢",
        "ĳ"
      ],
      [
        "è¾¾",
        "åĪ°"
      ],
      [
        "è¿Ľ",
        "ä¸ĢæŃ¥"
      ],
      [
        "Â",
        "·"
      ],
      [
        "å®ŀ",
        "éĻħ"
      ],
      [
        "âĢĶ",
        "âĢĶ"
      ],
      [
        "ç²",
        "ī"
      ],
      [
        "æĢ",
        "İ"
      ],
      [
        "çĶ",
        "ļ"
      ],
      [
        "èīº",
        "æľ¯"
      ],
      [
        "æ",
        "ĩ"
      ],
      [
        "ãĢ",
        "Į"
      ],
      [
        "ç»ĵ",
        "åĲĪ"
      ],
      [
        "èģĮ",
        "ä¸ļ"
      ],
      [
        "æĢ",
        "¥"
      ],
      [
        "åľ°",
        "æĸ¹"
      ],
      [
        "å¤",
        "«"
      ],
      [
        "1",
        "00"
      ],
      [
        "ä»",
        "ª"
      ],
      [
        "èį",
        "ī"
      ],
      [
        "åº",
        "Ĭ"
      ],
      [
        "é",
        "ĸ"
      ],
      [
        "æĵ",
        "į"
      ],
      [
        "èº«",
        "ä½ĵ"
      ],
      [
        "æĪ",
        "ı"
      ],
      [
        "å·",
        "¦"
      ],
      [
        "æĿ¥",
        "è¯´"
      ],
      [
        "æĭ",
        "Ľ"
      ],
      [
        "ãĢ",
        "į"
      ],
      [
        "åº",
        "ı"
      ],
      [
        "ä»",
        "į"
      ],
      [
        "è¿",
        "°"
      ],
      [
        "èĤ",
        "ī"
      ],
      [
        "åĽ",
        "°"
      ],
      [
        "å",
        "³"
      ],
      [
        "ä»·",
        "æł¼"
      ],
      [
        "ä¹",
        "ħ"
      ],
      [
        "ä¸",
        "ĥ"
      ],
      [
        "åı",
        "³"
      ],
      [
        "åĬª",
        "åĬĽ"
      ],
      [
        "è¿ĺ",
        "æľī"
      ],
      [
        "åıĸ",
        "å¾Ĺ"
      ],
      [
        "é£Ł",
        "åĵģ"
      ],
      [
        "æıĲ",
        "åĩº"
      ],
      [
        "è¿Ļ",
        "æĺ¯"
      ],
      [
        "æİ",
        "Ī"
      ],
      [
        "åĳ",
        "¢"
      ],
      [
        "è",
        "²"
      ],
      [
        "å½",
        "©"
      ],
      [
        "æİ",
        "ª"
      ],
      [
        "æ´",
        "²"
      ],
      [
        "ç»",
        "į"
      ],
      [
        "é¡",
        "º"
      ],
      [
        "è·",
        "µ"
      ],
      [
        "ä¸į",
        "è¦ģ"
      ],
      [
        "ä¿ĥ",
        "è¿Ľ"
      ],
      [
        "çĿ",
        "£"
      ],
      [
        "åŁ¹",
        "åħ»"
      ],
      [
        "ä»·",
        "åĢ¼"
      ],
      [
        "ä¹ĭ",
        "ä¸Ģ"
      ],
      [
        "ä¸Ģ",
        "èµ·"
      ],
      [
        "äº¿",
        "åħĥ"
      ],
      [
        "æĮģ",
        "ç»Ń"
      ],
      [
        "åİŁ",
        "åĽł"
      ],
      [
        "å",
        "ª"
      ],
      [
        "è",
        "ĸ"
      ],
      [
        "è¿Ĳ",
        "åĬ¨"
      ],
      [
        "%",
        ","
      ],
      [
        "æ¢",
        "°"
      ],
      [
        "5",
        "0"
      ],
      [
        "éĻ",
        "Ī"
      ],
      [
        "åģ",
        "ľ"
      ],
      [
        "éĺ",
        "¶"
      ],
      [
        "è¯",
        "Ĭ"
      ],
      [
        "ä¼ĺ",
        "åĬ¿"
      ],
      [
        "è½",
        "®"
      ],
      [
        "è½",
        "¯"
      ],
      [
        "å¸®",
        "åĬ©"
      ],
      [
        "é",
        "½"
      ],
      [
        "ä¹",
        "°"
      ],
      [
        "åĩ",
        "Ģ"
      ],
      [
        "ä¸Ĭ",
        "æµ·"
      ],
      [
        "æĻ",
        "Ĥ"
      ],
      [
        "æ£Ģ",
        "æŁ¥"
      ],
      [
        "éĶĢ",
        "åĶ®"
      ],
      [
        "çĶ",
        "²"
      ],
      [
        "ç",
        "µ"
      ],
      [
        "çĻ",
        "»"
      ],
      [
        "ç»",
        "©"
      ],
      [
        "è´",
        "µ"
      ],
      [
        "é",
        "¤"
      ],
      [
        "æĪĺ",
        "çķ¥"
      ],
      [
        "1",
        "8"
      ],
      [
        "è¿",
        "½"
      ],
      [
        "é£",
        "ŀ"
      ],
      [
        "éĴ",
        "Ī"
      ],
      [
        "å¡",
        "ĳ"
      ],
      [
        "ç´",
        "¢"
      ],
      [
        "èĻ½",
        "çĦ¶"
      ],
      [
        "éĿ",
        "ł"
      ],
      [
        "æĻº",
        "èĥ½"
      ],
      [
        "ä¿Ŀ",
        "éļľ"
      ],
      [
        "è®¡",
        "åĪĴ"
      ],
      [
        "ç¨³",
        "å®ļ"
      ],
      [
        "åħ¨",
        "çĲĥ"
      ],
      [
        "é¦",
        "Ĩ"
      ],
      [
        "æķ",
        "£"
      ],
      [
        "æĽ´",
        "å¤ļ"
      ],
      [
        "ç»",
        "ĥ"
      ],
      [
        "æ¯Ķ",
        "èµĽ"
      ],
      [
        "åıĤ",
        "åĬł"
      ],
      [
        "çĽ´",
        "æİ¥"
      ],
      [
        "è¿Ľ",
        "åħ¥"
      ],
      [
        "å§Ķ",
        "åĳĺ"
      ],
      [
        "æĶ",
        "»"
      ],
      [
        "å®",
        "ģ"
      ],
      [
        "äºº",
        "ä»¬"
      ],
      [
        "åıª",
        "æľī"
      ],
      [
        "æĪĲ",
        "åĬŁ"
      ],
      [
        "åħ",
        "¸"
      ],
      [
        "éĶ",
        "®"
      ],
      [
        "æĭ¥",
        "æľī"
      ],
      [
        "äº",
        "Ī"
      ],
      [
        "çĶ¨",
        "æĪ·"
      ],
      [
        "è·",
        "Ł"
      ],
      [
        "æ",
        "©"
      ],
      [
        "èĦ",
        "ĳ"
      ],
      [
        "ä¼",
        "¼"
      ],
      [
        "éĩĳ",
        "èŀį"
      ],
      [
        "å°",
        "¼"
      ],
      [
        "åĨ",
        "²"
      ],
      [
        "åĮ»",
        "çĸĹ"
      ],
      [
        "é",
        "Ń"
      ],
      [
        "è½",
        "½"
      ],
      [
        "çĶŁ",
        "æĢģ"
      ],
      [
        "æħ",
        "¢"
      ],
      [
        "éļı",
        "çĿĢ"
      ],
      [
        "èĤ",
        "¤"
      ],
      [
        "éĢ",
        "Ļ"
      ],
      [
        "äºĭ",
        "ä¸ļ"
      ],
      [
        "ä¹ĭ",
        "éĹ´"
      ],
      [
        "èı",
        "Į"
      ],
      [
        "ç",
        "¶"
      ],
      [
        "éĢ",
        "ı"
      ],
      [
        "åħ±",
        "åĲĮ"
      ],
      [
        "è¯",
        "ī"
      ],
      [
        "æ°ĳ",
        "æĹı"
      ],
      [
        "å¸",
        "Ń"
      ],
      [
        "è",
        "ĵ"
      ],
      [
        "éĢ",
        "Ģ"
      ],
      [
        "éĴ",
        "±"
      ],
      [
        "èĭ",
        "¦"
      ],
      [
        "å¥",
        "ĭ"
      ],
      [
        "ä»ĭ",
        "ç»į"
      ],
      [
        "æķĻ",
        "å¸Ī"
      ],
      [
        "åıĬ",
        "æĹ¶"
      ],
      [
        "èĥ",
        "¶"
      ],
      [
        "çĶļ",
        "èĩ³"
      ],
      [
        "åŁ¹",
        "è®Ń"
      ],
      [
        "çĶµ",
        "åŃĲ"
      ],
      [
        "åģ",
        "ĩ"
      ],
      [
        "æĻ",
        "ļ"
      ],
      [
        "å¥",
        "ĩ"
      ],
      [
        "èĲ½",
        "å®ŀ"
      ],
      [
        "æī",
        "©"
      ],
      [
        "æī",
        "ĺ"
      ],
      [
        "åĬł",
        "å·¥"
      ],
      [
        "åħħ",
        "åĪĨ"
      ],
      [
        "èį",
        "£"
      ],
      [
        "èĦ",
        "±"
      ],
      [
        "å¥",
        "Ĺ"
      ],
      [
        "è¡Į",
        "ä¸º"
      ],
      [
        "æ³",
        "Ľ"
      ],
      [
        "åŃ",
        "ķ"
      ],
      [
        "åı",
        "¶"
      ],
      [
        "æĮī",
        "çħ§"
      ],
      [
        "è¿ĩç¨ĭ",
        "ä¸Ń"
      ],
      [
        "èĨ",
        "ľ"
      ],
      [
        "å®",
        "«"
      ],
      [
        "ç¬¬",
        "ä¸ī"
      ],
      [
        "æľ",
        "Ŀ"
      ],
      [
        "ä¸¥",
        "éĩį"
      ],
      [
        "æĢ§",
        "èĥ½"
      ],
      [
        "çĪ",
        "¶"
      ],
      [
        "ä»",
        "ĺ"
      ],
      [
        "ç¥",
        "¨"
      ],
      [
        "å",
        "ĺ"
      ],
      [
        "å»",
        "¶"
      ],
      [
        "æİ",
        "¢"
      ],
      [
        "çļĦ",
        "åıĳå±ķ"
      ],
      [
        "æĿ",
        "¾"
      ],
      [
        "æ°",
        "¸"
      ],
      [
        "åĪ",
        "ĺ"
      ],
      [
        "è§Ħ",
        "åĪĴ"
      ],
      [
        "äº¤",
        "éĢļ"
      ],
      [
        "æĢ§",
        "çļĦ"
      ],
      [
        "éĶ",
        "Ļ"
      ],
      [
        "åıĳå±ķ",
        "çļĦ"
      ],
      [
        "åıĳ",
        "æĮ¥"
      ],
      [
        "è´",
        "¯"
      ],
      [
        "1",
        "6"
      ],
      [
        "ä»Ĭ",
        "å¹´"
      ],
      [
        "ç",
        "Ĵ"
      ],
      [
        "æ¯",
        "ķ"
      ],
      [
        "æł¸",
        "å¿ĥ"
      ],
      [
        "äº",
        "«"
      ],
      [
        "ä»»",
        "ä½ķ"
      ],
      [
        "æīį",
        "èĥ½"
      ],
      [
        "æĬ¥",
        "åĳĬ"
      ],
      [
        "åº",
        "Ĩ"
      ],
      [
        "ç»§",
        "ç»Ń"
      ],
      [
        "è",
        "³"
      ],
      [
        "éĽ",
        "¨"
      ],
      [
        "ä¹",
        "İ"
      ],
      [
        "å¨",
        "ģ"
      ],
      [
        "å¥",
        "¥"
      ],
      [
        "åĢ",
        "ĭ"
      ],
      [
        "ä¸Ģ",
        "çĽ´"
      ],
      [
        "ä¸¤",
        "ä¸ª"
      ],
      [
        "åħ³",
        "äºİ"
      ],
      [
        "å½",
        "»"
      ],
      [
        "èĥ",
        "Į"
      ],
      [
        "çĽ",
        "ĸ"
      ],
      [
        "æĬ",
        "ĵ"
      ],
      [
        "å®Į",
        "åĸĦ"
      ],
      [
        "ç",
        "ĺ"
      ],
      [
        "æŃ",
        "Į"
      ],
      [
        "è¶ħ",
        "è¿ĩ"
      ],
      [
        "å¾Ĺ",
        "åĪ°"
      ],
      [
        "åĩı",
        "å°ĳ"
      ],
      [
        "ä»ĸ",
        "çļĦ"
      ],
      [
        "èĥ½",
        "æºĲ"
      ],
      [
        "åİ",
        "ļ"
      ],
      [
        "çĨ",
        "Ł"
      ],
      [
        "ä¸°",
        "å¯Į"
      ],
      [
        "çģ",
        "µ"
      ],
      [
        "æĸ¹",
        "æ¡Ī"
      ],
      [
        "éģ¿",
        "åħį"
      ],
      [
        "æĹħ",
        "æ¸¸"
      ],
      [
        "é²",
        "ľ"
      ],
      [
        "æ²",
        "Ļ"
      ],
      [
        "èĮĥ",
        "åĽ´"
      ],
      [
        "ç¦",
        "ģ"
      ],
      [
        "æ",
        "¾"
      ],
      [
        "è°",
        "Ī"
      ],
      [
        "æ³ķ",
        "å¾ĭ"
      ],
      [
        "æľ",
        "ĭ"
      ],
      [
        "è¿",
        "İ"
      ],
      [
        "åĪ",
        "¤"
      ],
      [
        "ä½",
        "³"
      ],
      [
        "æĪĲ",
        "æľ¬"
      ],
      [
        "æķ",
        "ĳ"
      ],
      [
        "ä¼",
        "Ł"
      ],
      [
        "èĭ",
        "¥"
      ],
      [
        "æĢ",
        "Ģ"
      ],
      [
        "æĿ",
        "Ĥ"
      ],
      [
        "ç½",
        "ª"
      ],
      [
        "1",
        "4"
      ],
      [
        "å©",
        "ļ"
      ],
      [
        "éĻ",
        "Ħ"
      ],
      [
        "ç»ı",
        "è¿ĩ"
      ],
      [
        "æĸ½",
        "å·¥"
      ],
      [
        "èĹ",
        "ı"
      ],
      [
        "å®ŀ",
        "è·µ"
      ],
      [
        "ä¸į",
        "åı¯"
      ],
      [
        "å¼ķ",
        "èµ·"
      ],
      [
        "åª",
        "Ĵ"
      ],
      [
        "ä¸ĵ",
        "å®¶"
      ],
      [
        "åĪĨ",
        "éĴŁ"
      ],
      [
        "ä¸Ģ",
        "æ¬¡"
      ],
      [
        "èĻ",
        "ĳ"
      ],
      [
        "å®",
        "Ĺ"
      ],
      [
        "éª",
        "¨"
      ],
      [
        "è¯",
        "ļ"
      ],
      [
        "åħ³",
        "éĶ®"
      ],
      [
        "è§Ħ",
        "æ¨¡"
      ],
      [
        "ä½",
        "Ľ"
      ],
      [
        "ä»¥",
        "ä¸ĭ"
      ],
      [
        "çĲĨ",
        "è®º"
      ],
      [
        "ä¸Ģ",
        "ç§į"
      ],
      [
        "æ¯",
        "Ľ"
      ],
[...]
